<unk>	0
<s>	0
</s>	0
re	-0
nt	-1
▁p	-2
es	-3
on	-4
▁a	-5
▁c	-6
er	-7
▁d	-8
ou	-9
▁s	-10
is	-11
in	-12
▁e	-13
ti	-14
▁m	-15
an	-16
ent	-17
te	-18
le	-19
qu	-20
res	-21
it	-22
en	-23
▁f	-24
or	-25
tion	-26
▁v	-27
ar	-28
▁t	-29
▁de	-30
ie	-31
ra	-32
us	-33
ment	-34
our	-35
ne	-36
ant	-37
▁re	-38
ro	-39
ce	-40
li	-41
▁co	-42
que	-43
ur	-44
ation	-45
▁n	-46
il	-47
me	-48
ve	-49
ans	-50
al	-51
de	-52
▁b	-53
au	-54
di	-55
▁pl	-56
ta	-57
▁pour	-58
ir	-59
se	-60
▁g	-61
ac	-62
▁dans	-63
▁l	-64
ai	-65
ch	-66
si	-67
el	-68
▁h	-69
ont	-70
▁j	-71
mp	-72
▁plus	-73
ais	-74
▁in	-75
ri	-76
▁ch	-77
ons	-78
▁i	-79
ge	-80
ut	-81
▁en	-82
▁es	-83
ine	-84
▁pro	-85
ma	-86
▁av	-87
▁par	-88
et	-89
▁pre	-90
ci	-91
un	-92
om	-93
les	-94
tre	-95
▁pa	-96
cin	-97
ers	-98
ff	-99
▁vac	-100
▁se	-101
tu	-102
ait	-103
pe	-104
vi	-105
ol	-106
▁o	-107
▁an	-108
ous	-109
▁con	-110
ran	-111
▁vaccin	-112
ul	-113
ts	-114
▁ex	-115
urs	-116
▁mo	-117
lle	-118
os	-119
ux	-120
ale	-121
▁com	-122
ab	-123
oi	-124
▁res	-125
as	-126
▁dep	-127
▁me	-128
ces	-129
ag	-130
▁eta	-131
▁ap	-132
ue	-133
ouv	-134
▁ra	-135
ins	-136
▁cont	-137
▁aut	-138
▁est	-139
aux	-140
ise	-141
ite	-142
ques	-143
▁ave	-144
▁pres	-145
ic	-146
▁di	-147
▁le	-148
che	-149
▁avec	-150
▁sont	-151
tes	-152
aire	-153
▁tou	-154
▁mais	-155
op	-156
uis	-157
at	-158
nes	-159
▁mar	-160
▁ac	-161
ique	-162
▁u	-163
ys	-164
ec	-165
▁ca	-166
▁fran	-167
ure	-168
▁qu	-169
onne	-170
mb	-171
▁te	-172
ants	-173
oir	-174
du	-175
▁r	-176
mie	-177
▁rec	-178
▁int	-179
▁mil	-180
▁pe	-181
▁ar	-182
ort	-183
▁as	-184
▁exp	-185
ations	-186
▁al	-187
▁ent	-188
ette	-189
▁cette	-190
ante	-191
ern	-192
ille	-193
▁pers	-194
▁sel	-195
dre	-196
la	-197
▁selon	-198
▁su	-199
ouve	-200
▁pays	-201
▁milli	-202
ois	-203
mi	-204
man	-205
▁au	-206
ion	-207
▁une	-208
ien	-209
▁ser	-210
id	-211
▁at	-212
ines	-213
co	-214
ance	-215
▁nous	-216
ction	-217
mes	-218
vid	-219
onnes	-220
ouver	-221
tra	-222
og	-223
ours	-224
ig	-225
▁un	-226
▁parti	-227
ence	-228
▁li	-229
▁covid	-230
▁deux	-231
▁france	-232
aires	-233
▁depuis	-234
▁dec	-235
lement	-236
omb	-237
inis	-238
ites	-239
ord	-240
ors	-241
eu	-242
▁comp	-243
lo	-244
▁so	-245
mer	-246
ide	-247
ter	-248
▁reg	-249
▁elle	-250
am	-251
ub	-252
age	-253
▁nouve	-254
▁sou	-255
pp	-256
▁af	-257
des	-258
▁app	-259
tique	-260
▁no	-261
ture	-262
▁personnes	-263
▁tr	-264
▁etre	-265
▁sante	-266
ens	-267
▁ag	-268
lique	-269
▁comme	-270
▁entre	-271
▁tra	-272
tif	-273
▁sema	-274
▁conf	-275
▁apres	-276
vir	-277
ace	-278
▁per	-279
▁ob	-280
▁imp	-281
▁leur	-282
ments	-283
ot	-284
▁ter	-285
▁avait	-286
▁des	-287
▁millions	-288
▁aus	-289
▁mon	-290
▁ep	-291
ient	-292
▁rep	-293
uro	-294
▁inter	-295
▁eff	-296
▁dis	-297
oc	-298
gne	-299
▁comm	-300
▁fait	-301
▁dev	-302
ere	-303
ble	-304
▁ne	-305
iere	-306
olog	-307
ombre	-308
▁mal	-309
▁euro	-310
orte	-311
lles	-312
▁contre	-313
▁tro	-314
▁dern	-315
▁ev	-316
▁minis	-317
end	-318
▁che	-319
▁pub	-320
▁vaccination	-321
ten	-322
▁ec	-323
▁or	-324
▁nombre	-325
im	-326
ris	-327
aient	-328
▁cons	-329
oire	-330
▁ad	-331
▁ma	-332
sion	-333
ene	-334
ves	-335
▁cel	-336
▁moins	-337
cu	-338
ver	-339
▁ins	-340
▁tres	-341
tri	-342
and	-343
▁pas	-344
if	-345
▁sa	-346
▁autor	-347
▁aussi	-348
ier	-349
▁indi	-350
▁ass	-351
▁ren	-352
▁cent	-353
nement	-354
oses	-355
ui	-356
▁mes	-357
▁k	-358
met	-359
ose	-360
ond	-361
▁sur	-362
teur	-363
▁fe	-364
▁cer	-365
▁que	-366
ard	-367
▁etu	-368
ulation	-369
ents	-370
▁deb	-371
▁gouver	-372
vent	-373
▁dont	-374
enne	-375
▁anne	-376
▁tout	-377
▁gran	-378
▁envir	-379
va	-380
ru	-381
▁ann	-382
orts	-383
alement	-384
ja	-385
use	-386
ente	-387
ande	-388
▁afp	-389
▁presid	-390
mis	-391
ures	-392
▁jus	-393
▁europe	-394
lis	-395
ong	-396
▁po	-397
▁gouvernement	-398
out	-399
▁sec	-400
teurs	-401
▁avoir	-402
▁meme	-403
▁premie	-404
abit	-405
mment	-406
▁faire	-407
ph	-408
cer	-409
▁ph	-410
▁san	-411
aine	-412
once	-413
able	-414
▁jour	-415
iques	-416
▁etait	-417
▁cli	-418
▁ab	-419
▁ele	-420
▁ven	-421
▁mala	-422
lu	-423
jec	-424
iste	-425
▁pop	-426
▁aff	-427
▁habit	-428
▁autres	-429
rit	-430
▁cor	-431
tions	-432
▁semaine	-433
▁inf	-434
▁rapp	-435
▁ministre	-436
ler	-437
▁certa	-438
▁explique	-439
ital	-440
▁quel	-441
per	-442
ser	-443
▁premi	-444
ies	-445
oute	-446
▁temp	-447
▁clima	-448
▁trois	-449
▁z	-450
▁epide	-451
▁etats	-452
ire	-453
core	-454
lite	-455
▁dire	-456
▁doses	-457
oup	-458
▁jeu	-459
▁vaccins	-460
ues	-461
▁ans	-462
▁esti	-463
▁etat	-464
▁trans	-465
int	-466
▁ro	-467
▁deja	-468
▁encore	-469
oit	-470
tant	-471
ieurs	-472
one	-473
ales	-474
rait	-475
▁met	-476
▁prec	-477
ls	-478
▁mer	-479
▁sans	-480
▁premiere	-481
▁mois	-482
▁for	-483
▁pati	-484
▁monde	-485
▁president	-486
ee	-487
▁lors	-488
▁mont	-489
▁eg	-490
▁na	-491
▁qua	-492
▁annonce	-493
▁plusieurs	-494
rer	-495
▁gra	-496
tamment	-497
▁population	-498
its	-499
▁acc	-500
▁decla	-501
▁produ	-502
oy	-503
▁ver	-504
▁avant	-505
▁declare	-506
ign	-507
uel	-508
ches	-509
▁ret	-510
▁notamment	-511
zen	-512
▁ri	-513
ront	-514
tiques	-515
▁alors	-516
▁jours	-517
cher	-518
▁sit	-519
▁astra	-520
▁indique	-521
eca	-522
▁amer	-523
zeneca	-524
▁astrazeneca	-525
jet	-526
▁cap	-527
▁sous	-528
dic	-529
▁is	-530
rise	-531
▁car	-532
▁leurs	-533
up	-534
▁aj	-535
▁ou	-536
▁diff	-537
▁vi	-538
bles	-539
▁hop	-540
cre	-541
▁def	-542
▁disp	-543
est	-544
▁je	-545
agne	-546
medi	-547
▁gen	-548
▁les	-549
▁pri	-550
▁nation	-551
asse	-552
▁fau	-553
▁man	-554
▁paris	-555
ari	-556
▁fer	-557
▁franc	-558
▁mardi	-559
isation	-560
▁region	-561
ges	-562
▁hu	-563
▁ris	-564
gn	-565
onn	-566
▁ju	-567
▁premier	-568
rant	-569
▁cha	-570
▁espe	-571
ger	-572
rent	-573
▁confine	-574
gan	-575
lie	-576
▁ni	-577
▁unis	-578
ole	-579
tive	-580
▁ant	-581
▁pol	-582
▁jeudi	-583
▁commun	-584
ven	-585
ill	-586
▁lun	-587
▁sanit	-588
▁donne	-589
▁lundi	-590
▁ve	-591
▁atte	-592
▁recu	-593
▁epidemie	-594
▁autorites	-595
cul	-596
aint	-597
▁bien	-598
▁toute	-599
▁egalement	-600
ils	-601
▁prof	-602
▁organ	-603
▁mesures	-604
orm	-605
▁ce	-606
insi	-607
▁mars	-608
▁peut	-609
▁ainsi	-610
▁deces	-611
▁souli	-612
▁cl	-613
▁soit	-614
▁debut	-615
▁jusqu	-616
▁habitants	-617
ici	-618
mbre	-619
▁mede	-620
▁prop	-621
ap	-622
he	-623
iti	-624
▁be	-625
ieux	-626
▁vol	-627
endant	-628
▁he	-629
ieme	-630
ison	-631
▁fois	-632
▁end	-633
▁semaines	-634
lic	-635
ages	-636
▁uti	-637
▁resp	-638
▁pande	-639
▁patients	-640
dent	-641
sent	-642
▁chez	-643
▁tous	-644
ions	-645
tent	-646
▁effet	-647
▁morts	-648
onnement	-649
vier	-650
▁moy	-651
▁uni	-652
▁vir	-653
▁puis	-654
▁camp	-655
▁nord	-656
▁ajoute	-657
▁americ	-658
▁pandemie	-659
ing	-660
▁ti	-661
iter	-662
▁sy	-663
ron	-664
site	-665
▁conse	-666
▁vendre	-667
ises	-668
credi	-669
▁francais	-670
▁mercredi	-671
ril	-672
oint	-673
▁can	-674
▁enf	-675
▁peti	-676
▁gener	-677
▁vendredi	-678
▁er	-679
ense	-680
uer	-681
mble	-682
mande	-683
▁avaient	-684
▁hau	-685
▁pos	-686
▁ense	-687
▁long	-688
▁nive	-689
ctions	-690
▁mat	-691
▁annee	-692
▁avril	-693
▁samedi	-694
ate	-695
oin	-696
illes	-697
uation	-698
▁etude	-699
▁personne	-700
▁deg	-701
▁estime	-702
ses	-703
▁chi	-704
▁ref	-705
▁cela	-706
▁sus	-707
▁bres	-708
▁vous	-709
▁direc	-710
cip	-711
rier	-712
▁char	-713
▁environnement	-714
vre	-715
ange	-716
elle	-717
▁sau	-718
▁vag	-719
▁vis	-720
▁souligne	-721
ain	-722
▁ile	-723
aines	-724
sions	-725
▁pouv	-726
▁medic	-727
▁medecin	-728
osi	-729
rie	-730
▁certains	-731
▁confinement	-732
ren	-733
▁oc	-734
iers	-735
▁alle	-736
manche	-737
▁mondi	-738
▁virus	-739
▁import	-740
vis	-741
fois	-742
▁grand	-743
▁dimanche	-744
fi	-745
son	-746
▁cas	-747
▁seu	-748
▁servi	-749
▁nature	-750
▁rapport	-751
era	-752
ones	-753
▁environ	-754
reg	-755
ret	-756
▁ur	-757
▁cin	-758
▁ten	-759
▁pollu	-760
antes	-761
▁anim	-762
▁injec	-763
▁elles	-764
▁prote	-765
▁temps	-766
th	-767
ist	-768
pec	-769
irme	-770
▁som	-771
▁face	-772
ber	-773
▁jo	-774
▁eau	-775
▁ils	-776
▁loc	-777
▁soi	-778
▁cou	-779
▁sci	-780
istes	-781
▁arri	-782
▁redu	-783
▁vague	-784
▁risque	-785
▁campagne	-786
io	-787
rin	-788
▁cher	-789
▁porte	-790
ige	-791
uses	-792
▁ici	-793
▁exper	-794
▁raison	-795
▁nouvelle	-796
die	-797
▁hos	-798
▁off	-799
▁rou	-800
▁atten	-801
▁reste	-802
▁agence	-803
▁quatre	-804
av	-805
pes	-806
vel	-807
▁autre	-808
▁trava	-809
▁permet	-810
▁dernier	-811
ad	-812
cl	-813
oci	-814
▁th	-815
▁fin	-816
▁sal	-817
ieres	-818
▁beau	-819
▁grande	-820
▁restri	-821
▁pendant	-822
▁precise	-823
min	-824
onc	-825
▁fo	-826
▁eco	-827
▁tour	-828
▁vers	-829
illeurs	-830
▁centre	-831
agn	-832
▁ba	-833
▁men	-834
ables	-835
▁cote	-836
▁publie	-837
ieu	-838
▁im	-839
tere	-840
▁mas	-841
▁cinq	-842
▁conn	-843
▁sera	-844
▁colle	-845
▁annees	-846
▁donnees	-847
gra	-848
iel	-849
▁st	-850
▁bar	-851
▁fev	-852
jours	-853
tures	-854
▁chef	-855
▁part	-856
tement	-857
▁place	-858
▁partie	-859
▁fevrier	-860
▁toujours	-861
▁situation	-862
hn	-863
cine	-864
▁aug	-865
▁hosp	-866
▁profes	-867
▁augment	-868
▁etaient	-869
▁respons	-870
▁fre	-871
▁prov	-872
▁partir	-873
▁fu	-874
▁nu	-875
coup	-876
▁contam	-877
▁contin	-878
▁utilis	-879
▁beaucoup	-880
▁restrictions	-881
ences	-882
minis	-883
▁objec	-884
▁passe	-885
▁intern	-886
▁nouveau	-887
ane	-888
cle	-889
cial	-890
mple	-891
yste	-892
▁ech	-893
▁equ	-894
▁acce	-895
▁poli	-896
▁pren	-897
▁pris	-898
atoire	-899
▁point	-900
▁assure	-901
▁objectif	-902
can	-903
der	-904
ona	-905
onte	-906
▁sep	-907
eures	-908
▁faut	-909
▁parc	-910
versite	-911
▁atteint	-912
▁hopital	-913
▁nouveaux	-914
▁climatique	-915
▁den	-916
▁nor	-917
▁depar	-918
▁possi	-919
▁niveau	-920
▁adminis	-921
for	-922
ras	-923
lier	-924
velop	-925
▁etab	-926
▁ouest	-927
▁chaque	-928
▁quelques	-929
eek	-930
ree	-931
gent	-932
ourd	-933
quer	-934
unes	-935
▁rap	-936
▁prev	-937
▁appel	-938
▁chiff	-939
▁ville	-940
▁recher	-941
▁ailleurs	-942
vite	-943
yant	-944
▁esp	-945
▁hom	-946
entif	-947
▁vari	-948
▁enreg	-949
▁ferme	-950
▁climat	-951
▁territ	-952
▁present	-953
▁y	-954
rou	-955
vee	-956
aisse	-957
▁john	-958
▁susp	-959
▁cause	-960
▁chine	-961
▁quand	-962
▁heures	-963
▁internation	-964
onom	-965
▁cir	-966
▁emp	-967
▁jan	-968
▁ont	-969
▁tes	-970
lisse	-971
▁prin	-972
▁lance	-973
▁develop	-974
▁janvier	-975
▁vacciner	-976
tie	-977
▁el	-978
▁fra	-979
▁mac	-980
▁quo	-981
▁sud	-982
▁vra	-983
ution	-984
▁actu	-985
▁afri	-986
▁especes	-987
bre	-988
chi	-989
ensi	-990
titu	-991
usse	-992
▁lim	-993
▁sta	-994
▁sub	-995
ances	-996
virus	-997
▁erup	-998
▁cherche	-999
▁quelque	-1000
▁contamin	-1001
▁scientif	-1002
su	-1003
gie	-1004
▁em	-1005
▁om	-1006
▁fac	-1007
▁tot	-1008
▁dose	-1009
▁port	-1010
▁associ	-1011
▁bresil	-1012
▁corona	-1013
▁econom	-1014
▁public	-1015
▁derniere	-1016
▁communique	-1017
▁coronavirus	-1018
fs	-1019
rir	-1020
iens	-1021
iles	-1022
tidi	-1023
vers	-1024
▁air	-1025
raient	-1026
▁obser	-1027
▁compte	-1028
▁jeunes	-1029
▁quotidi	-1030
ili	-1031
isse	-1032
quie	-1033
▁age	-1034
▁sour	-1035
▁malades	-1036
▁deuxieme	-1037
▁pollution	-1038
iss	-1039
▁bl	-1040
▁la	-1041
▁lab	-1042
▁spe	-1043
▁deplo	-1044
ologique	-1045
▁sanitaire	-1046
cess	-1047
▁bou	-1048
iment	-1049
▁acti	-1050
▁avons	-1051
▁cours	-1052
▁projet	-1053
gu	-1054
act	-1055
▁eng	-1056
▁gar	-1057
▁hui	-1058
▁sol	-1059
▁doit	-1060
ute	-1061
anim	-1062
isme	-1063
oires	-1064
▁agri	-1065
▁emis	-1066
ormais	-1067
▁total	-1068
▁pourrait	-1069
▁publique	-1070
▁desormais	-1071
art	-1072
voir	-1073
▁cro	-1074
resse	-1075
▁fond	-1076
▁ayant	-1077
▁mesure	-1078
▁maladie	-1079
ffe	-1080
lac	-1081
tal	-1082
▁mi	-1083
▁si	-1084
iser	-1085
▁cri	-1086
▁oms	-1087
▁enfants	-1088
▁particu	-1089
▁toutefois	-1090
▁europeenne	-1091
to	-1092
ieur	-1093
▁roy	-1094
▁ceux	-1095
▁dece	-1096
▁sign	-1097
▁crise	-1098
▁zones	-1099
▁moment	-1100
▁suspen	-1101
▁toutes	-1102
▁transp	-1103
▁demande	-1104
▁nouvelles	-1105
um	-1106
tru	-1107
▁bi	-1108
▁ind	-1109
▁peu	-1110
▁sor	-1111
itale	-1112
▁anti	-1113
▁inde	-1114
▁trop	-1115
▁maint	-1116
▁inquie	-1117
▁reanim	-1118
▁seront	-1119
▁princip	-1120
▁nombreux	-1121
▁sanitaires	-1122
arm	-1123
onde	-1124
oque	-1125
rain	-1126
▁ali	-1127
itaux	-1128
▁chin	-1129
▁conc	-1130
▁reser	-1131
▁charge	-1132
▁vaccine	-1133
▁ensemble	-1134
▁hopitaux	-1135
▁national	-1136
▁directeur	-1137
▁ministere	-1138
nce	-1139
isee	-1140
ienne	-1141
▁fais	-1142
▁obli	-1143
▁effic	-1144
▁eleve	-1145
▁contro	-1146
▁enregis	-1147
▁medecins	-1148
▁contaminations	-1149
st	-1150
men	-1151
▁ha	-1152
▁sc	-1153
▁ang	-1154
▁auj	-1155
▁aup	-1156
▁cul	-1157
▁dou	-1158
▁huma	-1159
▁jean	-1160
▁soir	-1161
▁taux	-1162
▁labor	-1163
ierement	-1164
▁aujourd	-1165
▁capitale	-1166
▁eruption	-1167
▁hospital	-1168
▁reanimation	-1169
tin	-1170
▁fi	-1171
▁dom	-1172
▁maj	-1173
▁mor	-1174
▁dure	-1175
▁equi	-1176
▁oper	-1177
▁proch	-1178
▁macron	-1179
▁moyenne	-1180
ats	-1181
mee	-1182
nent	-1183
tees	-1184
▁dem	-1185
▁dro	-1186
▁matin	-1187
▁syste	-1188
▁animaux	-1189
▁general	-1190
▁du	-1191
▁sp	-1192
▁to	-1193
▁cre	-1194
▁doi	-1195
roupe	-1196
▁saint	-1197
▁accord	-1198
▁change	-1199
▁johnson	-1200
▁nationale	-1201
▁universite	-1202
ati	-1203
▁hy	-1204
tifs	-1205
ulta	-1206
▁lar	-1207
▁min	-1208
▁donc	-1209
▁real	-1210
▁reun	-1211
▁touche	-1212
bi	-1213
mps	-1214
tage	-1215
▁fai	-1216
▁fem	-1217
▁imm	-1218
▁lut	-1219
magne	-1220
▁voit	-1221
ologie	-1222
tation	-1223
▁consi	-1224
▁heure	-1225
osition	-1226
▁actuel	-1227
▁affirme	-1228
▁conseil	-1229
▁milliard	-1230
▁allemagne	-1231
cep	-1232
tau	-1233
▁bes	-1234
▁pen	-1235
amais	-1236
erent	-1237
manuel	-1238
▁appro	-1239
▁ouver	-1240
▁commer	-1241
▁consta	-1242
▁rapide	-1243
▁peuvent	-1244
▁travail	-1245
▁commence	-1246
▁emmanuel	-1247
▁enregistre	-1248
bil	-1249
hes	-1250
tee	-1251
▁gu	-1252
ains	-1253
aume	-1254
lace	-1255
▁col	-1256
▁urg	-1257
▁val	-1258
▁prog	-1259
▁rech	-1260
▁soins	-1261
▁groupe	-1262
▁jamais	-1263
▁resulta	-1264
▁organisation	-1265
gre	-1266
tte	-1267
▁vo	-1268
▁ess	-1269
▁ima	-1270
▁vic	-1271
ielle	-1272
▁aide	-1273
▁cour	-1274
▁gens	-1275
▁mete	-1276
▁contra	-1277
▁impact	-1278
▁aliment	-1279
▁regions	-1280
▁mondiale	-1281
▁association	-1282
ay	-1283
han	-1284
ilo	-1285
lee	-1286
▁all	-1287
▁rev	-1288
▁vou	-1289
▁retr	-1290
ission	-1291
▁infec	-1292
▁soign	-1293
▁concer	-1294
▁ecoles	-1295
▁etudes	-1296
▁necess	-1297
▁proble	-1298
▁recherche	-1299
sy	-1300
dies	-1301
mation	-1302
▁decis	-1303
▁forte	-1304
▁offic	-1305
▁parmi	-1306
▁quant	-1307
▁recom	-1308
▁effets	-1309
▁volcan	-1310
▁service	-1311
▁chiffres	-1312
▁certaines	-1313
▁developpe	-1314
gue	-1315
ira	-1316
nee	-1317
itie	-1318
leve	-1319
mand	-1320
▁inc	-1321
▁deci	-1322
▁lieu	-1323
▁loin	-1324
▁rece	-1325
metres	-1326
tionne	-1327
▁acces	-1328
▁explo	-1329
▁prece	-1330
▁afrique	-1331
▁pouvoir	-1332
▁variant	-1333
▁americain	-1334
▁seulement	-1335
▁responsable	-1336
oni	-1337
▁cy	-1338
▁et	-1339
▁bil	-1340
▁tri	-1341
icile	-1342
orite	-1343
▁supp	-1344
▁attend	-1345
▁entrep	-1346
▁parole	-1347
▁reconn	-1348
▁respec	-1349
▁royaume	-1350
▁possible	-1351
▁ge	-1352
inee	-1353
male	-1354
ourn	-1355
▁ple	-1356
ennes	-1357
quent	-1358
▁bene	-1359
▁evac	-1360
▁font	-1361
▁pref	-1362
▁suis	-1363
erence	-1364
▁celui	-1365
▁notre	-1366
▁consom	-1367
▁devant	-1368
▁rechau	-1369
▁doivent	-1370
▁emissions	-1371
bres	-1372
▁auc	-1373
▁cal	-1374
▁aler	-1375
▁stra	-1376
▁vont	-1377
▁zone	-1378
sionne	-1379
vation	-1380
▁etudi	-1381
▁surve	-1382
▁autour	-1383
▁dernieres	-1384
ca	-1385
ann	-1386
cie	-1387
ros	-1388
▁ox	-1389
pele	-1390
▁amb	-1391
▁bas	-1392
▁pra	-1393
▁psy	-1394
acite	-1395
ouvre	-1396
▁nour	-1397
▁voir	-1398
▁aller	-1399
▁veran	-1400
▁aupres	-1401
▁collec	-1402
▁chinois	-1403
▁experts	-1404
▁mainten	-1405
▁changement	-1406
xe	-1407
ade	-1408
tit	-1409
ffis	-1410
gram	-1411
sive	-1412
▁ras	-1413
alite	-1414
▁circ	-1415
▁pomp	-1416
▁sais	-1417
▁vois	-1418
▁extre	-1419
▁souff	-1420
▁tests	-1421
ffement	-1422
tements	-1423
▁metres	-1424
▁consequ	-1425
▁derniers	-1426
▁rechauffement	-1427
▁ci	-1428
utes	-1429
▁der	-1430
▁fam	-1431
▁kilo	-1432
▁tele	-1433
▁parce	-1434
▁medica	-1435
▁presse	-1436
▁special	-1437
▁tempera	-1438
▁milliers	-1439
▁etablisse	-1440
▁laboratoire	-1441
hi	-1442
ule	-1443
enom	-1444
vage	-1445
▁aer	-1446
▁neg	-1447
▁rej	-1448
tiere	-1449
▁asse	-1450
▁aucu	-1451
▁coup	-1452
▁juge	-1453
▁soci	-1454
▁eviter	-1455
▁phenom	-1456
▁restau	-1457
▁prendre	-1458
▁produits	-1459
▁services	-1460
▁actuellement	-1461
▁scientifiques	-1462
ct	-1463
lent	-1464
roph	-1465
▁del	-1466
▁oli	-1467
▁pes	-1468
▁voy	-1469
quant	-1470
▁aucun	-1471
▁caste	-1472
▁euros	-1473
▁oblig	-1474
▁secur	-1475
ression	-1476
▁aucune	-1477
▁baisse	-1478
▁record	-1479
▁interdi	-1480
▁different	-1481
▁injection	-1482
▁kilometres	-1483
▁territoire	-1484
go	-1485
sui	-1486
xte	-1487
▁dan	-1488
▁diz	-1489
▁oce	-1490
suite	-1491
▁carb	-1492
▁posi	-1493
▁rien	-1494
▁trou	-1495
ouvrir	-1496
▁celle	-1497
▁journ	-1498
▁chasse	-1499
▁graves	-1500
▁centres	-1501
▁ensuite	-1502
▁intensi	-1503
▁poursui	-1504
▁systeme	-1505
▁decembre	-1506
▁administre	-1507
▁professionne	-1508
chn	-1509
cup	-1510
zer	-1511
cite	-1512
▁ges	-1513
vient	-1514
▁blan	-1515
▁comb	-1516
▁oise	-1517
▁seul	-1518
▁bilan	-1519
▁fourn	-1520
▁homme	-1521
▁union	-1522
▁victi	-1523
▁austra	-1524
▁besoin	-1525
▁malgre	-1526
▁menace	-1527
▁montre	-1528
▁retour	-1529
▁comment	-1530
▁urgence	-1531
dee	-1532
▁ta	-1533
aiss	-1534
icul	-1535
meli	-1536
tien	-1537
▁exe	-1538
▁feu	-1539
▁fon	-1540
armac	-1541
fizer	-1542
indre	-1543
isees	-1544
▁ques	-1545
▁rese	-1546
▁connu	-1547
▁deven	-1548
▁perio	-1549
▁alerte	-1550
▁castex	-1551
▁essent	-1552
▁hausse	-1553
▁renfor	-1554
▁repres	-1555
▁particul	-1556
▁protection	-1557
ita	-1558
tir	-1559
vax	-1560
▁ir	-1561
▁us	-1562
aces	-1563
▁cit	-1564
▁sui	-1565
lande	-1566
▁prep	-1567
▁quar	-1568
▁situe	-1569
vention	-1570
▁arbres	-1571
▁pfizer	-1572
▁conside	-1573
▁olivier	-1574
▁pharmac	-1575
▁publiee	-1576
▁decision	-1577
lementaires	-1578
▁chercheurs	-1579
ry	-1580
yg	-1581
ze	-1582
are	-1583
iee	-1584
ner	-1585
oue	-1586
tic	-1587
▁on	-1588
onge	-1589
ortu	-1590
rale	-1591
▁dir	-1592
▁fab	-1593
▁vig	-1594
mique	-1595
vites	-1596
▁afin	-1597
▁eval	-1598
▁mise	-1599
▁sept	-1600
ateurs	-1601
ouvent	-1602
▁manif	-1603
▁repon	-1604
▁accele	-1605
▁serait	-1606
▁agricul	-1607
▁enseign	-1608
▁vraiment	-1609
▁troisieme	-1610
tast	-1611
▁mai	-1612
ition	-1613
mbres	-1614
ousse	-1615
raine	-1616
▁ener	-1617
▁isra	-1618
▁lits	-1619
▁site	-1620
▁covax	-1621
▁enque	-1622
▁front	-1623
▁infir	-1624
▁large	-1625
▁mieux	-1626
▁super	-1627
▁argent	-1628
▁catast	-1629
▁engage	-1630
▁sommes	-1631
issement	-1632
▁deplace	-1633
▁exemple	-1634
▁membres	-1635
▁periode	-1636
▁risques	-1637
▁resultats	-1638
▁catastroph	-1639
▁rapidement	-1640
ori	-1641
val	-1642
▁ly	-1643
tout	-1644
▁abs	-1645
▁oeu	-1646
▁opp	-1647
▁pau	-1648
▁pie	-1649
ateur	-1650
avant	-1651
tives	-1652
▁anal	-1653
▁nove	-1654
▁pass	-1655
▁vide	-1656
▁alpes	-1657
▁condi	-1658
▁fabri	-1659
▁petit	-1660
▁reven	-1661
▁terme	-1662
▁terre	-1663
▁autant	-1664
▁strate	-1665
▁devrait	-1666
▁journal	-1667
▁oiseaux	-1668
▁surtout	-1669
▁novembre	-1670
▁securite	-1671
▁utilisation	-1672
▁departements	-1673
ars	-1674
ecu	-1675
lif	-1676
ode	-1677
pel	-1678
enes	-1679
iels	-1680
lage	-1681
onie	-1682
▁phot	-1683
▁ameli	-1684
▁etran	-1685
▁lutte	-1686
▁ocean	-1687
▁socie	-1688
▁couvre	-1689
isations	-1690
▁activite	-1691
▁vaccines	-1692
▁important	-1693
▁reduction	-1694
do	-1695
dro	-1696
ore	-1697
▁lo	-1698
▁ru	-1699
reta	-1700
▁aid	-1701
▁ces	-1702
▁cra	-1703
▁fle	-1704
▁liv	-1705
riere	-1706
▁prob	-1707
▁tent	-1708
▁grace	-1709
▁immun	-1710
▁milit	-1711
▁sujet	-1712
▁animal	-1713
▁cancer	-1714
▁mariti	-1715
▁masque	-1716
tivement	-1717
▁disponi	-1718
▁premiers	-1719
▁commission	-1720
▁circulation	-1721
mor	-1722
▁ty	-1723
rage	-1724
andis	-1725
rises	-1726
▁arre	-1727
▁chau	-1728
▁dete	-1729
▁orig	-1730
▁appar	-1731
▁garde	-1732
▁liber	-1733
▁plane	-1734
▁techn	-1735
▁conser	-1736
▁dirige	-1737
▁grands	-1738
▁inform	-1739
▁tandis	-1740
▁mondial	-1741
▁parfois	-1742
▁produit	-1743
▁reunion	-1744
▁provoque	-1745
▁surveill	-1746
▁victimes	-1747
▁atteindre	-1748
fe	-1749
all	-1750
cid	-1751
ppe	-1752
yse	-1753
yth	-1754
▁da	-1755
cent	-1756
comp	-1757
omes	-1758
trib	-1759
▁dit	-1760
▁env	-1761
▁flo	-1762
itter	-1763
▁anci	-1764
▁atta	-1765
▁brit	-1766
▁huit	-1767
▁mort	-1768
▁navi	-1769
bilite	-1770
▁ident	-1771
▁moyen	-1772
▁decide	-1773
▁dispar	-1774
▁instal	-1775
▁second	-1776
▁terres	-1777
▁tonnes	-1778
▁extreme	-1779
▁journee	-1780
▁progres	-1781
▁europeen	-1782
▁maladies	-1783
▁centaines	-1784
▁premieres	-1785
▁soignants	-1786
▁particules	-1787
ds	-1788
dit	-1789
rop	-1790
▁rh	-1791
erna	-1792
ingt	-1793
▁leg	-1794
▁lui	-1795
▁non	-1796
titut	-1797
▁clin	-1798
▁haut	-1799
▁lave	-1800
▁lien	-1801
▁nuit	-1802
▁cadre	-1803
▁psych	-1804
▁rouge	-1805
▁mettre	-1806
▁moitie	-1807
▁visite	-1808
▁britann	-1809
▁carbone	-1810
▁defense	-1811
▁enquete	-1812
▁interro	-1813
▁confirme	-1814
▁institut	-1815
▁professe	-1816
▁administra	-1817
▁production	-1818
▁restaurant	-1819
▁developpement	-1820
be	-1821
ov	-1822
ps	-1823
dra	-1824
ete	-1825
fic	-1826
ude	-1827
▁fl	-1828
ctes	-1829
eter	-1830
iner	-1831
lant	-1832
oser	-1833
tici	-1834
vant	-1835
▁bru	-1836
▁sue	-1837
▁vie	-1838
onner	-1839
upart	-1840
▁degc	-1841
▁dess	-1842
▁juin	-1843
▁oxyg	-1844
▁tard	-1845
▁util	-1846
▁veut	-1847
▁haute	-1848
▁jeune	-1849
▁outre	-1850
▁prise	-1851
▁rasse	-1852
▁manque	-1853
▁retard	-1854
▁traite	-1855
▁arrivee	-1856
▁deplore	-1857
▁gestion	-1858
▁insiste	-1859
▁niveaux	-1860
▁plupart	-1861
▁reserve	-1862
▁terrain	-1863
▁presence	-1864
▁fermeture	-1865
▁milliards	-1866
▁phenomene	-1867
▁precedent	-1868
▁strategie	-1869
▁personnels	-1870
▁enseignants	-1871
ia	-1872
kin	-1873
ote	-1874
xim	-1875
ctri	-1876
land	-1877
▁doc	-1878
▁lib	-1879
▁pan	-1880
▁sie	-1881
illet	-1882
▁ecos	-1883
▁gros	-1884
▁pire	-1885
▁reve	-1886
▁symp	-1887
chipel	-1888
▁execu	-1889
▁foret	-1890
▁meteo	-1891
▁sangu	-1892
▁appele	-1893
▁sommet	-1894
▁sortir	-1895
▁trouve	-1896
ouverture	-1897
▁archipel	-1898
▁entraine	-1899
▁particip	-1900
▁quotidien	-1901
▁americaine	-1902
▁maintenant	-1903
▁presidente	-1904
▁surveillance	-1905
ik	-1906
eur	-1907
len	-1908
ust	-1909
gies	-1910
▁cep	-1911
▁rac	-1912
▁adul	-1913
▁ryth	-1914
▁tomb	-1915
▁citoy	-1916
▁evene	-1917
▁maire	-1918
▁stade	-1919
eration	-1920
olution	-1921
▁arrive	-1922
▁avance	-1923
▁femmes	-1924
▁rester	-1925
▁source	-1926
ablement	-1927
▁million	-1928
▁oxygene	-1929
▁planete	-1930
▁travers	-1931
▁executif	-1932
▁fonction	-1933
▁majorite	-1934
▁operation	-1935
▁augmentation	-1936
▁professionnels	-1937
oph	-1938
tor	-1939
ager	-1940
apon	-1941
atif	-1942
erie	-1943
iden	-1944
igne	-1945
ires	-1946
lais	-1947
ogra	-1948
▁ban	-1949
▁mex	-1950
▁mod	-1951
▁pou	-1952
▁aver	-1953
▁base	-1954
▁ital	-1955
aisser	-1956
▁biden	-1957
▁condu	-1958
▁effec	-1959
▁expli	-1960
▁inond	-1961
▁japon	-1962
▁ligne	-1963
▁livra	-1964
▁neige	-1965
▁russe	-1966
▁durant	-1967
▁faible	-1968
▁locaux	-1969
▁passer	-1970
▁petite	-1971
▁rythme	-1972
▁veille	-1973
ologiste	-1974
▁culture	-1975
▁augmente	-1976
▁centrale	-1977
▁dizaines	-1978
▁consequences	-1979
tt	-1980
ash	-1981
une	-1982
▁fa	-1983
anie	-1984
avor	-1985
gues	-1986
osph	-1987
ueil	-1988
▁mag	-1989
▁syn	-1990
tenir	-1991
vages	-1992
▁agit	-1993
▁eaux	-1994
▁exam	-1995
▁surf	-1996
▁tend	-1997
▁test	-1998
ograph	-1999
▁bonne	-2000
▁incid	-2001
▁initi	-2002
▁mobil	-2003
▁ordre	-2004
▁popul	-2005
▁refle	-2006
▁serre	-2007
▁celles	-2008
▁comple	-2009
▁italie	-2010
▁bresili	-2011
▁electri	-2012
▁instant	-2013
▁economie	-2014
▁efficace	-2015
▁pourront	-2016
▁troubles	-2017
▁difficile	-2018
▁intensifs	-2019
▁vaccinees	-2020
▁injections	-2021
▁nombreuses	-2022
▁etablissements	-2023
ye	-2024
ass	-2025
mon	-2026
oll	-2027
onf	-2028
yes	-2029
▁ye	-2030
aise	-2031
aitre	-2032
tobre	-2033
trice	-2034
▁plan	-2035
▁rela	-2036
▁scol	-2037
▁sent	-2038
▁tota	-2039
▁vite	-2040
ielles	-2041
rendre	-2042
riture	-2043
tembre	-2044
▁pekin	-2045
▁voire	-2046
▁accomp	-2047
▁classe	-2048
▁contag	-2049
▁maison	-2050
▁marche	-2051
▁permis	-2052
▁petits	-2053
▁police	-2054
▁releve	-2055
▁riches	-2056
▁villes	-2057
▁compris	-2058
▁indones	-2059
▁juillet	-2060
▁octobre	-2061
▁raconte	-2062
▁controle	-2063
▁personnel	-2064
▁septembre	-2065
▁conditions	-2066
▁suspension	-2067
▁departement	-2068
▁internationale	-2069
ck	-2070
ka	-2071
ile	-2072
ime	-2073
tis	-2074
▁bo	-2075
▁op	-2076
dues	-2077
ific	-2078
ifie	-2079
tice	-2080
ules	-2081
▁bat	-2082
▁bio	-2083
▁ete	-2084
▁fla	-2085
▁glo	-2086
▁mul	-2087
▁ong	-2088
▁qui	-2089
tomes	-2090
▁auto	-2091
▁cycl	-2092
▁disc	-2093
▁idee	-2094
▁mene	-2095
▁mous	-2096
▁rare	-2097
▁ress	-2098
illage	-2099
▁agees	-2100
▁assez	-2101
▁chose	-2102
▁deman	-2103
▁objet	-2104
▁plate	-2105
▁texte	-2106
▁images	-2107
▁orient	-2108
▁disposi	-2109
▁efforts	-2110
▁program	-2111
▁reduire	-2112
▁respira	-2113
▁restent	-2114
▁critique	-2115
▁question	-2116
▁cependant	-2117
▁etudiants	-2118
▁symptomes	-2119
▁efficacite	-2120
▁britannique	-2121
▁inondations	-2122
▁responsables	-2123
lir	-2124
lou	-2125
nte	-2126
illo	-2127
tait	-2128
tier	-2129
▁det	-2130
▁ema	-2131
▁emb	-2132
▁enc	-2133
▁fil	-2134
▁ger	-2135
▁hyp	-2136
▁vul	-2137
entes	-2138
isons	-2139
▁amen	-2140
▁eten	-2141
▁guer	-2142
▁medi	-2143
▁mess	-2144
▁tant	-2145
angere	-2146
itaire	-2147
ologue	-2148
ustrie	-2149
▁depis	-2150
▁duree	-2151
▁event	-2152
▁excep	-2153
▁recla	-2154
▁seule	-2155
▁suite	-2156
▁video	-2157
lements	-2158
matique	-2159
▁espere	-2160
▁limite	-2161
▁dangere	-2162
▁depasse	-2163
▁epidemi	-2164
▁justice	-2165
▁lorsque	-2166
▁observe	-2167
▁pestici	-2168
▁qualite	-2169
▁rassemb	-2170
▁secteur	-2171
iellement	-2172
▁activites	-2173
▁ecologique	-2174
▁economique	-2175
▁nourriture	-2176
▁disponibles	-2177
▁entreprises	-2178
▁interdiction	-2179
▁scientifique	-2180
▁international	-2181
▁supplementaires	-2182
da	-2183
anz	-2184
app	-2185
ker	-2186
▁ga	-2187
▁hi	-2188
hese	-2189
lies	-2190
mant	-2191
ores	-2192
▁arc	-2193
▁tem	-2194
agnos	-2195
asses	-2196
endre	-2197
▁adop	-2198
▁aura	-2199
▁bles	-2200
▁deta	-2201
▁glac	-2202
▁glob	-2203
▁hist	-2204
▁midi	-2205
▁quoi	-2206
▁reac	-2207
▁requ	-2208
▁sens	-2209
▁stri	-2210
▁trib	-2211
vision	-2212
▁aggra	-2213
▁femme	-2214
▁fuite	-2215
▁fumee	-2216
▁lieux	-2217
▁preoc	-2218
▁proce	-2219
▁repub	-2220
▁agrico	-2221
▁chiens	-2222
▁milieu	-2223
▁rendre	-2224
truction	-2225
▁diagnos	-2226
▁islande	-2227
▁matiere	-2228
▁origine	-2229
▁societe	-2230
▁constate	-2231
▁constitu	-2232
▁continue	-2233
▁pompiers	-2234
▁probleme	-2235
▁voitures	-2236
▁argentine	-2237
▁incidence	-2238
▁interieur	-2239
▁necessaire	-2240
▁pourraient	-2241
▁restaurants	-2242
ha	-2243
uf	-2244
car	-2245
enn	-2246
mad	-2247
oix	-2248
vie	-2249
▁ja	-2250
dite	-2251
mine	-2252
rodu	-2253
unis	-2254
▁iss	-2255
▁vas	-2256
ancer	-2257
enses	-2258
rents	-2259
toire	-2260
verse	-2261
▁cale	-2262
▁cond	-2263
▁demi	-2264
▁dist	-2265
▁radi	-2266
▁souh	-2267
▁visi	-2268
ientot	-2269
ntemps	-2270
▁autom	-2271
▁etant	-2272
llement	-2273
▁chance	-2274
▁commen	-2275
▁formes	-2276
▁fortes	-2277
▁metrop	-2278
▁saison	-2279
▁suffis	-2280
▁bientot	-2281
▁denonce	-2282
▁famille	-2283
▁medical	-2284
▁amerique	-2285
▁communau	-2286
▁difficul	-2287
▁parisien	-2288
▁pourtant	-2289
▁presente	-2290
▁industrie	-2291
▁politique	-2292
▁printemps	-2293
▁conference	-2294
▁exposition	-2295
▁recommande	-2296
▁particulier	-2297
ath	-2298
rad	-2299
ume	-2300
una	-2301
uss	-2302
▁pi	-2303
oise	-2304
roid	-2305
romb	-2306
tres	-2307
ueur	-2308
vile	-2309
▁ama	-2310
▁bal	-2311
▁gri	-2312
▁mau	-2313
▁pac	-2314
▁the	-2315
▁veh	-2316
▁vel	-2317
elles	-2318
isant	-2319
liers	-2320
miere	-2321
oncer	-2322
ourir	-2323
uelle	-2324
ument	-2325
▁epis	-2326
▁inse	-2327
▁insu	-2328
▁peup	-2329
▁sort	-2330
cident	-2331
ontech	-2332
titude	-2333
▁abord	-2334
▁affec	-2335
▁dimin	-2336
▁forme	-2337
▁grave	-2338
▁multi	-2339
▁perdu	-2340
▁quasi	-2341
▁seine	-2342
▁somme	-2343
▁vient	-2344
arition	-2345
▁caillo	-2346
▁davant	-2347
▁equipe	-2348
▁espece	-2349
▁marine	-2350
▁moyens	-2351
▁precau	-2352
▁prefec	-2353
▁proche	-2354
▁savoir	-2355
▁interne	-2356
▁soulign	-2357
▁sources	-2358
▁souvent	-2359
ologiques	-2360
▁biontech	-2361
▁manifest	-2362
▁recevoir	-2363
▁sanguins	-2364
▁vacances	-2365
▁davantage	-2366
▁problemes	-2367
▁prochaine	-2368
▁transport	-2369
▁medicament	-2370
▁quotidiens	-2371
▁reouverture	-2372
▁territoires	-2373
▁temperatures	-2374
▁administration	-2375
bes	-2376
ets	-2377
mar	-2378
▁br	-2379
iees	-2380
inte	-2381
quel	-2382
suit	-2383
utot	-2384
▁dun	-2385
▁fut	-2386
▁gre	-2387
▁her	-2388
▁onu	-2389
▁ord	-2390
▁rat	-2391
imale	-2392
istan	-2393
liens	-2394
ontre	-2395
table	-2396
temps	-2397
▁avis	-2398
▁reag	-2399
▁seve	-2400
▁simp	-2401
cation	-2402
▁cotes	-2403
▁deter	-2404
▁hauts	-2405
▁hypot	-2406
▁prevu	-2407
▁sensi	-2408
▁speci	-2409
▁tiers	-2410
▁trent	-2411
▁vehic	-2412
▁venir	-2413
iennent	-2414
inement	-2415
▁danger	-2416
▁plutot	-2417
▁preven	-2418
▁acceler	-2419
▁limiter	-2420
▁maisons	-2421
▁mexique	-2422
▁moderna	-2423
▁partout	-2424
▁protege	-2425
▁recense	-2426
▁caillots	-2427
▁inquietu	-2428
▁poursuit	-2429
▁commerces	-2430
▁francaise	-2431
▁longtemps	-2432
▁recommand	-2433
▁differents	-2434
▁professeur	-2435
▁hospitalises	-2436
ll	-2437
ok	-2438
ana	-2439
ice	-2440
ome	-2441
ysi	-2442
▁am	-2443
orme	-2444
rets	-2445
▁ben	-2446
▁cru	-2447
▁eth	-2448
▁gal	-2449
▁mic	-2450
▁tru	-2451
ortes	-2452
▁adap	-2453
▁dech	-2454
▁dest	-2455
▁doll	-2456
▁exis	-2457
▁peur	-2458
▁remp	-2459
▁renc	-2460
▁vent	-2461
▁voie	-2462
mpleur	-2463
▁debat	-2464
▁droit	-2465
▁ecole	-2466
▁frequ	-2467
▁norve	-2468
▁occup	-2469
▁regul	-2470
▁tortu	-2471
uations	-2472
▁aurait	-2473
▁dunker	-2474
▁eleves	-2475
▁entree	-2476
▁espoir	-2477
▁fermes	-2478
▁meteor	-2479
▁prises	-2480
▁seisme	-2481
▁thromb	-2482
▁voyage	-2483
▁ampleur	-2484
▁analyse	-2485
▁chiffre	-2486
▁faisant	-2487
▁prevoit	-2488
▁publics	-2489
▁reconnu	-2490
▁renouve	-2491
▁sociaux	-2492
▁insuffis	-2493
▁medecine	-2494
▁renforce	-2495
▁sauvages	-2496
▁accelerer	-2497
▁continuer	-2498
▁americains	-2499
▁importante	-2500
▁moustiques	-2501
▁prefecture	-2502
▁republique	-2503
▁transition	-2504
▁transports	-2505
▁temperature	-2506
▁administrees	-2507
▁consommation	-2508
yp	-2509
ach	-2510
ang	-2511
oma	-2512
sif	-2513
tar	-2514
atri	-2515
gnes	-2516
lien	-2517
oyer	-2518
visi	-2519
▁ara	-2520
▁bul	-2521
▁fig	-2522
▁ine	-2523
▁ste	-2524
agnes	-2525
intes	-2526
itant	-2527
▁abat	-2528
▁aout	-2529
▁asie	-2530
▁bord	-2531
▁mauv	-2532
▁spec	-2533
▁tete	-2534
▁type	-2535
▁viol	-2536
▁voul	-2537
▁afric	-2538
▁aider	-2539
▁endro	-2540
▁favor	-2541
▁fines	-2542
▁force	-2543
▁juste	-2544
▁prepa	-2545
▁revue	-2546
▁tenir	-2547
oration	-2548
▁consul	-2549
▁decenn	-2550
▁degats	-2551
▁frappe	-2552
▁israel	-2553
▁longue	-2554
▁sortie	-2555
▁syndic	-2556
▁volont	-2557
▁anglais	-2558
▁concern	-2559
▁dollars	-2560
▁preleve	-2561
▁presque	-2562
▁touches	-2563
▁concerne	-2564
▁confront	-2565
▁domicile	-2566
▁generale	-2567
▁pratique	-2568
▁pression	-2569
▁rappelle	-2570
▁variants	-2571
▁australie	-2572
▁represent	-2573
▁scolaires	-2574
▁pesticides	-2575
▁recherches	-2576
▁exceptionne	-2577
▁medicaments	-2578
ib	-2579
ly	-2580
mt	-2581
kel	-2582
plo	-2583
tue	-2584
urb	-2585
urg	-2586
uve	-2587
clus	-2588
main	-2589
orer	-2590
vaux	-2591
vres	-2592
▁bra	-2593
▁edu	-2594
▁red	-2595
▁rel	-2596
▁rem	-2597
aison	-2598
anche	-2599
itent	-2600
joint	-2601
mages	-2602
ulent	-2603
urent	-2604
▁ache	-2605
▁affi	-2606
▁chac	-2607
▁elus	-2608
▁iles	-2609
▁inte	-2610
▁lies	-2611
▁mere	-2612
▁meth	-2613
▁mode	-2614
▁vols	-2615
lienne	-2616
▁arret	-2617
▁benef	-2618
▁chris	-2619
▁demar	-2620
▁denis	-2621
▁detec	-2622
▁essai	-2623
▁faune	-2624
▁marin	-2625
▁plage	-2626
▁prior	-2627
▁provo	-2628
▁puiss	-2629
▁table	-2630
antaine	-2631
osphere	-2632
▁confie	-2633
▁donner	-2634
▁essais	-2635
▁forets	-2636
sivement	-2637
▁adultes	-2638
▁entrain	-2639
▁humains	-2640
▁maniere	-2641
▁normale	-2642
▁patient	-2643
▁arctique	-2644
▁etranger	-2645
▁interdit	-2646
▁preoccup	-2647
▁rapporte	-2648
▁revanche	-2649
▁augmenter	-2650
▁devraient	-2651
▁dunkerque	-2652
▁interroge	-2653
▁permettre	-2654
▁programme	-2655
▁dispositif	-2656
▁operations	-2657
▁photograph	-2658
▁catastrophe	-2659
▁obligatoire	-2660
▁conservation	-2661
▁informations	-2662
od	-2663
dez	-2664
ola	-2665
rib	-2666
uie	-2667
yer	-2668
▁eb	-2669
cles	-2670
cule	-2671
oles	-2672
orde	-2673
ttes	-2674
▁abe	-2675
▁bel	-2676
▁ber	-2677
▁cop	-2678
▁gab	-2679
▁inv	-2680
▁pot	-2681
agers	-2682
aleur	-2683
oigne	-2684
ption	-2685
tific	-2686
venue	-2687
▁bate	-2688
▁cend	-2689
▁feux	-2690
▁frag	-2691
▁mich	-2692
▁note	-2693
▁pand	-2694
▁surp	-2695
▁vise	-2696
amment	-2697
licite	-2698
▁aerop	-2699
▁cardi	-2700
▁coule	-2701
▁feder	-2702
▁gratu	-2703
▁mater	-2704
▁peine	-2705
▁rares	-2706
▁resid	-2707
▁tunis	-2708
atoires	-2709
itaires	-2710
itation	-2711
retaire	-2712
▁croiss	-2713
▁impose	-2714
▁multip	-2715
▁oeuvre	-2716
▁ouvert	-2717
▁viande	-2718
▁accueil	-2719
▁arriver	-2720
▁assurer	-2721
▁concent	-2722
▁echelle	-2723
▁hospita	-2724
▁reseaux	-2725
▁surface	-2726
▁tortues	-2727
▁autorite	-2728
▁priorite	-2729
▁suspendu	-2730
▁transmis	-2731
▁evenement	-2732
▁livraison	-2733
▁parlement	-2734
▁retrouver	-2735
▁touristes	-2736
▁contagieux	-2737
▁secretaire	-2738
▁agriculture	-2739
▁importantes	-2740
▁autorisation	-2741
▁confinements	-2742
▁probablement	-2743
▁vaccinations	-2744
mo	-2745
adi	-2746
gal	-2747
inf	-2748
ral	-2749
sen	-2750
▁gr	-2751
arde	-2752
enir	-2753
gere	-2754
irie	-2755
quoi	-2756
uies	-2757
vain	-2758
▁ale	-2759
▁atm	-2760
▁eux	-2761
▁suc	-2762
gique	-2763
itude	-2764
▁ages	-2765
▁arti	-2766
▁cann	-2767
▁fixe	-2768
▁lich	-2769
▁ment	-2770
▁pert	-2771
▁plai	-2772
▁prix	-2773
▁rend	-2774
▁rent	-2775
▁rose	-2776
▁sein	-2777
action	-2778
issent	-2779
mettre	-2780
miques	-2781
quelle	-2782
ration	-2783
talite	-2784
▁attal	-2785
▁biodi	-2786
▁crois	-2787
▁diplo	-2788
▁exter	-2789
▁human	-2790
▁hydro	-2791
▁liste	-2792
▁local	-2793
▁pense	-2794
▁plein	-2795
▁rhone	-2796
▁tradi	-2797
▁train	-2798
▁allait	-2799
▁arrete	-2800
▁attrib	-2801
▁averti	-2802
▁combat	-2803
▁coraux	-2804
▁immedi	-2805
▁locale	-2806
▁passep	-2807
▁pluies	-2808
▁pointe	-2809
▁potent	-2810
▁provin	-2811
▁rappel	-2812
▁rendez	-2813
▁specta	-2814
▁terras	-2815
▁attaque	-2816
▁cendres	-2817
▁contrib	-2818
▁dechets	-2819
▁humaine	-2820
▁navires	-2821
▁sauvage	-2822
▁sociale	-2823
▁souhait	-2824
▁utilise	-2825
▁vigueur	-2826
▁voisins	-2827
▁capacite	-2828
▁ecologie	-2829
▁insectes	-2830
▁laquelle	-2831
▁maritime	-2832
▁pourquoi	-2833
▁utilises	-2834
▁attendant	-2835
▁autorises	-2836
▁considere	-2837
▁contraire	-2838
▁formation	-2839
▁principal	-2840
▁recemment	-2841
▁vehicules	-2842
▁entreprise	-2843
▁represente	-2844
▁extremement	-2845
▁populations	-2846
▁secondaires	-2847
▁biodiversite	-2848
▁deplacements	-2849
ya	-2850
ald	-2851
mat	-2852
nam	-2853
▁bu	-2854
▁my	-2855
ator	-2856
erer	-2857
etes	-2858
usee	-2859
▁ach	-2860
▁har	-2861
▁jau	-2862
▁ker	-2863
▁lit	-2864
▁mus	-2865
▁sav	-2866
▁vin	-2867
iance	-2868
ifier	-2869
tence	-2870
teres	-2871
ussie	-2872
▁abri	-2873
▁dela	-2874
▁ende	-2875
▁hong	-2876
▁occu	-2877
▁pous	-2878
▁quin	-2879
▁tanz	-2880
inaire	-2881
ington	-2882
ouvert	-2883
▁affir	-2884
▁cesse	-2885
▁comor	-2886
▁devas	-2887
▁envis	-2888
▁facon	-2889
▁fonds	-2890
▁froid	-2891
▁image	-2892
▁inves	-2893
▁israe	-2894
▁issue	-2895
▁masse	-2896
▁maxim	-2897
▁micro	-2898
▁nucle	-2899
mations	-2900
▁cannab	-2901
▁debute	-2902
▁dessus	-2903
▁etabli	-2904
▁mairie	-2905
▁marque	-2906
▁medias	-2907
▁meille	-2908
▁ouvrir	-2909
▁reseau	-2910
▁siecle	-2911
▁simple	-2912
▁soient	-2913
▁tenter	-2914
▁unique	-2915
▁vivent	-2916
airement	-2917
▁classes	-2918
▁cyclone	-2919
▁episode	-2920
▁equipes	-2921
▁grandes	-2922
▁nourrir	-2923
▁parents	-2924
▁propose	-2925
▁rouvrir	-2926
▁secours	-2927
▁sommeil	-2928
▁proteger	-2929
▁retrouve	-2930
▁tendance	-2931
▁viennent	-2932
orestation	-2933
▁continent	-2934
▁critiques	-2935
▁dangereux	-2936
▁depistage	-2937
▁direction	-2938
▁evolution	-2939
▁maritimes	-2940
▁metropole	-2941
▁naturelle	-2942
▁objectifs	-2943
▁poursuivi	-2944
▁precaution	-2945
▁traitement	-2946
▁volcanique	-2947
▁difficultes	-2948
▁specialiste	-2949
▁agriculteurs	-2950
anc	-2951
ina	-2952
log	-2953
ock	-2954
ony	-2955
ruc	-2956
uee	-2957
zon	-2958
berg	-2959
ossi	-2960
ourg	-2961
pere	-2962
uees	-2963
uler	-2964
▁ars	-2965
▁aux	-2966
▁fou	-2967
▁inh	-2968
▁pak	-2969
▁tox	-2970
▁urb	-2971
ative	-2972
▁bars	-2973
▁bout	-2974
▁cele	-2975
▁cere	-2976
▁exer	-2977
▁lyce	-2978
▁mait	-2979
▁maur	-2980
▁poll	-2981
▁pose	-2982
▁prol	-2983
▁refu	-2984
▁semb	-2985
▁tran	-2986
atives	-2987
▁coeur	-2988
▁corps	-2989
▁eleph	-2990
▁envoy	-2991
▁hiver	-2992
▁peche	-2993
▁radio	-2994
▁rejou	-2995
▁vente	-2996
aration	-2997
▁action	-2998
▁ancien	-2999
▁chaine	-3000
▁evoque	-3001
▁fabric	-3002
▁lequel	-3003
▁lorsqu	-3004
▁marins	-3005
▁promis	-3006
▁proven	-3007
▁regles	-3008
▁russie	-3009
▁semble	-3010
▁taille	-3011
▁trafic	-3012
▁vulner	-3013
itations	-3014
ositions	-3015
▁affaire	-3016
▁appelle	-3017
▁automne	-3018
▁courant	-3019
▁deputes	-3020
▁espagne	-3021
▁finance	-3022
▁maximum	-3023
▁mission	-3024
▁naturel	-3025
▁obtenir	-3026
▁proches	-3027
▁travaux	-3028
ologistes	-3029
▁cannabis	-3030
▁familles	-3031
▁francois	-3032
▁pakistan	-3033
▁bresilien	-3034
▁cliniques	-3035
▁hypothese	-3036
▁polluants	-3037
▁regionale	-3038
▁vaccinale	-3039
▁epidemique	-3040
▁finalement	-3041
▁frontieres	-3042
▁impression	-3043
▁poursuivre	-3044
▁traditionne	-3045
▁acceleration	-3046
▁participants	-3047
▁deforestation	-3048
▁etablissement	-3049
▁psychologique	-3050
ak	-3051
ada	-3052
ase	-3053
cri	-3054
dne	-3055
gen	-3056
hou	-3057
kus	-3058
nik	-3059
oss	-3060
pal	-3061
uri	-3062
conn	-3063
dney	-3064
enez	-3065
hima	-3066
mage	-3067
mees	-3068
ocra	-3069
rond	-3070
tenu	-3071
uter	-3072
▁bai	-3073
▁bon	-3074
▁len	-3075
▁nic	-3076
▁pal	-3077
▁pat	-3078
▁pla	-3079
▁sid	-3080
▁sim	-3081
▁tch	-3082
atine	-3083
drait	-3084
orter	-3085
rence	-3086
rouve	-3087
taine	-3088
▁bras	-3089
▁bure	-3090
▁chir	-3091
▁decl	-3092
▁hors	-3093
▁hote	-3094
▁kong	-3095
▁liee	-3096
▁magn	-3097
▁occa	-3098
▁pron	-3099
▁reel	-3100
▁velo	-3101
▁ving	-3102
▁yeux	-3103
istres	-3104
ourage	-3105
outnik	-3106
ysique	-3107
▁barre	-3108
▁choix	-3109
▁emplo	-3110
▁esper	-3111
▁etend	-3112
▁faute	-3113
▁fores	-3114
▁fukus	-3115
▁lente	-3116
▁neces	-3117
▁numer	-3118
▁rendu	-3119
▁seche	-3120
▁signe	-3121
▁vingt	-3122
istique	-3123
ologies	-3124
usement	-3125
▁amende	-3126
▁arrond	-3127
▁choses	-3128
▁droite	-3129
▁lutter	-3130
▁malade	-3131
▁oblige	-3132
▁prolif	-3133
▁sydney	-3134
▁termes	-3135
▁article	-3136
▁blanche	-3137
▁certain	-3138
▁compagn	-3139
▁continu	-3140
▁democra	-3141
▁diploma	-3142
▁distrib	-3143
▁immense	-3144
▁laisser	-3145
▁lichens	-3146
▁manifes	-3147
▁parties	-3148
▁perturb	-3149
▁petites	-3150
▁portant	-3151
▁pouvait	-3152
▁pouvons	-3153
▁proprie	-3154
▁rappele	-3155
▁realise	-3156
▁reponse	-3157
▁seconde	-3158
alisation	-3159
▁allemand	-3160
▁benefici	-3161
▁centaine	-3162
▁comporte	-3163
▁energies	-3164
▁estiment	-3165
▁gouverne	-3166
▁internet	-3167
▁resultat	-3168
▁seraient	-3169
▁signific	-3170
▁spoutnik	-3171
▁fukushima	-3172
▁mortalite	-3173
▁necessite	-3174
▁permettra	-3175
▁pharmacie	-3176
▁renforcer	-3177
▁visiteurs	-3178
▁convention	-3179
▁developper	-3180
▁essentiels	-3181
▁experiment	-3182
▁opposition	-3183
▁parisienne	-3184
▁climatiques	-3185
▁necessaires	-3186
▁regulierement	-3187
bo	-3188
ga	-3189
ano	-3190
eth	-3191
gor	-3192
jan	-3193
mas	-3194
▁az	-3195
▁lu	-3196
endu	-3197
oign	-3198
ombe	-3199
riel	-3200
vien	-3201
▁eli	-3202
▁med	-3203
▁mut	-3204
▁ran	-3205
▁rey	-3206
▁sat	-3207
▁tar	-3208
▁tur	-3209
dente	-3210
enari	-3211
fices	-3212
iller	-3213
perer	-3214
taire	-3215
toral	-3216
usion	-3217
▁avoc	-3218
▁cree	-3219
▁date	-3220
▁enne	-3221
▁lyon	-3222
▁nett	-3223
▁noir	-3224
▁pens	-3225
▁pois	-3226
▁ther	-3227
▁vert	-3228
iennes	-3229
ifique	-3230
insule	-3231
tivite	-3232
toires	-3233
utique	-3234
▁accep	-3235
▁ajout	-3236
▁chant	-3237
▁chili	-3238
▁ebola	-3239
▁enfin	-3240
▁expri	-3241
▁group	-3242
▁oeufs	-3243
▁phase	-3244
▁portu	-3245
▁relac	-3246
▁route	-3247
▁seuil	-3248
▁struc	-3249
▁telle	-3250
▁trump	-3251
▁votre	-3252
aissent	-3253
▁allons	-3254
▁appels	-3255
▁attent	-3256
▁civile	-3257
▁decret	-3258
▁expose	-3259
▁fermer	-3260
▁indica	-3261
▁peuple	-3262
▁plages	-3263
▁pousse	-3264
▁propos	-3265
▁puisse	-3266
▁reconf	-3267
▁repond	-3268
▁revenu	-3269
▁statis	-3270
▁compter	-3271
▁constat	-3272
▁convain	-3273
▁energie	-3274
▁infirmi	-3275
▁methode	-3276
▁millier	-3277
▁norvege	-3278
▁organis	-3279
▁plateau	-3280
▁prevenu	-3281
▁ressour	-3282
▁scenari	-3283
▁signale	-3284
▁station	-3285
lissement	-3286
▁abeilles	-3287
▁accelere	-3288
▁aeroport	-3289
▁atteints	-3290
▁autorise	-3291
▁clinique	-3292
▁derriere	-3293
▁ecosyste	-3294
▁eventuel	-3295
▁histoire	-3296
▁medicale	-3297
▁montrent	-3298
▁probable	-3299
▁puissent	-3300
▁chercheur	-3301
▁citoyenne	-3302
▁commencer	-3303
▁exterieur	-3304
▁infection	-3305
▁largement	-3306
▁organisme	-3307
▁peninsule	-3308
▁vingtaine	-3309
▁communaute	-3310
▁concernant	-3311
▁infections	-3312
▁infirmiere	-3313
▁obligation	-3314
▁prochaines	-3315
▁soulignant	-3316
▁deplacement	-3317
▁enregistres	-3318
▁information	-3319
▁precedentes	-3320
▁quarantaine	-3321
▁suffisamment	-3322
nd	-3323
ara	-3324
arg	-3325
aro	-3326
bid	-3327
cal	-3328
har	-3329
lit	-3330
vik	-3331
ache	-3332
dees	-3333
ford	-3334
gers	-3335
mait	-3336
oins	-3337
ress	-3338
urer	-3339
▁anx	-3340
▁bre	-3341
▁cos	-3342
▁deh	-3343
▁dra	-3344
▁gue	-3345
▁hec	-3346
▁log	-3347
▁max	-3348
▁mun	-3349
▁nom	-3350
▁por	-3351
▁son	-3352
▁sug	-3353
chent	-3354
inage	-3355
mblee	-3356
ondre	-3357
onise	-3358
tiers	-3359
urant	-3360
▁bran	-3361
▁chan	-3362
▁cite	-3363
▁cout	-3364
▁ecou	-3365
▁gard	-3366
▁ille	-3367
▁modi	-3368
▁neuf	-3369
▁nice	-3370
▁norm	-3371
▁rele	-3372
▁reus	-3373
▁reyk	-3374
▁soja	-3375
▁soud	-3376
ndrier	-3377
ximite	-3378
▁blanc	-3379
▁conte	-3380
▁endom	-3381
▁extra	-3382
▁kerry	-3383
▁liees	-3384
▁lions	-3385
▁lourd	-3386
▁marse	-3387
▁morte	-3388
▁neuro	-3389
▁parcs	-3390
▁phili	-3391
▁prend	-3392
▁reagi	-3393
▁satis	-3394
▁serie	-3395
▁seuls	-3396
▁sorte	-3397
▁suivi	-3398
▁venez	-3399
▁verit	-3400
bidites	-3401
istance	-3402
▁analys	-3403
▁bonnes	-3404
▁chacun	-3405
▁comite	-3406
▁depend	-3407
▁disent	-3408
▁echapp	-3409
▁examen	-3410
▁forces	-3411
▁guerre	-3412
▁guinee	-3413
▁justif	-3414
▁lancer	-3415
▁latine	-3416
▁lesque	-3417
▁martin	-3418
▁massif	-3419
▁mourir	-3420
▁negoci	-3421
▁parler	-3422
▁polici	-3423
▁pourra	-3424
▁preser	-3425
▁social	-3426
aissance	-3427
matiques	-3428
tinction	-3429
▁absence	-3430
▁adjoint	-3431
▁autotes	-3432
▁faisait	-3433
▁gabriel	-3434
▁institu	-3435
▁negatif	-3436
▁partici	-3437
▁pouvant	-3438
▁projets	-3439
▁realite	-3440
▁recours	-3441
▁severes	-3442
ashington	-3443
▁agricole	-3444
▁altitude	-3445
▁approche	-3446
▁chinoise	-3447
▁commente	-3448
▁consomma	-3449
▁cultures	-3450
▁detresse	-3451
▁inquiete	-3452
▁installe	-3453
▁internes	-3454
▁organise	-3455
▁produire	-3456
▁recenses	-3457
▁secteurs	-3458
▁solution	-3459
▁syndicat	-3460
▁tanzanie	-3461
▁travaill	-3462
▁approvisi	-3463
▁atteintes	-3464
▁education	-3465
▁europeens	-3466
▁existence	-3467
▁expliquer	-3468
▁pacifique	-3469
▁possibles	-3470
▁prochains	-3471
▁proximite	-3472
▁suspendre	-3473
▁travaille	-3474
▁trentaine	-3475
▁calendrier	-3476
▁collective	-3477
▁comprendre	-3478
▁dirigeants	-3479
▁engagement	-3480
▁ressources	-3481
▁simplement	-3482
▁estimations	-3483
▁hospitalier	-3484
▁pharmaciens	-3485
▁possibilite	-3486
▁volontaires	-3487
▁propositions	-3488
▁relativement	-3489
▁respiratoires	-3490
▁principalement	-3491
fj	-3492
aut	-3493
dep	-3494
dis	-3495
dor	-3496
ela	-3497
irs	-3498
▁bf	-3499
algo	-3500
ards	-3501
arie	-3502
arme	-3503
veur	-3504
▁ble	-3505
▁fes	-3506
▁fru	-3507
▁hid	-3508
▁ign	-3509
▁pel	-3510
▁reb	-3511
▁voi	-3512
aries	-3513
clure	-3514
rette	-3515
venir	-3516
▁barb	-3517
▁camb	-3518
▁cant	-3519
▁cate	-3520
▁dura	-3521
▁ecar	-3522
▁enta	-3523
▁feme	-3524
▁fort	-3525
▁gend	-3526
▁gene	-3527
▁inva	-3528
▁main	-3529
▁ratp	-3530
▁rues	-3531
▁sait	-3532
▁soli	-3533
▁symb	-3534
▁vege	-3535
▁vice	-3536
demain	-3537
itesse	-3538
liques	-3539
taient	-3540
vement	-3541
▁aupar	-3542
▁defin	-3543
▁delai	-3544
▁frapp	-3545
▁green	-3546
▁libre	-3547
▁menee	-3548
▁minim	-3549
▁nette	-3550
▁pluie	-3551
▁retra	-3552
▁salle	-3553
▁simil	-3554
▁stock	-3555
▁subst	-3556
▁unite	-3557
▁usage	-3558
▁vaste	-3559
▁vivre	-3560
ologues	-3561
visions	-3562
▁apicul	-3563
▁canada	-3564
▁causes	-3565
▁compar	-3566
▁condam	-3567
▁confir	-3568
▁dehors	-3569
▁depute	-3570
▁fleurs	-3571
▁interd	-3572
▁invite	-3573
▁laisse	-3574
▁merkel	-3575
▁michel	-3576
▁montee	-3577
▁mortes	-3578
▁oxford	-3579
▁propre	-3580
▁psychi	-3581
▁rappro	-3582
▁refuge	-3583
▁satisf	-3584
▁sauver	-3585
▁souris	-3586
▁urgent	-3587
lication	-3588
viennent	-3589
▁affront	-3590
▁ambitie	-3591
▁baisser	-3592
▁braconn	-3593
▁dispose	-3594
▁dizaine	-3595
▁evaluer	-3596
▁faisons	-3597
▁groupes	-3598
▁habitat	-3599
▁hidalgo	-3600
▁message	-3601
▁ordonne	-3602
▁partage	-3603
▁pauvres	-3604
▁plantes	-3605
▁requins	-3606
▁roseaux	-3607
▁soutien	-3608
▁veulent	-3609
▁vitesse	-3610
▁actuelle	-3611
▁attendre	-3612
▁demander	-3613
▁littoral	-3614
▁occasion	-3615
▁positifs	-3616
▁quartier	-3617
▁repondre	-3618
▁salaries	-3619
▁transfor	-3620
▁ameliorer	-3621
▁assemblee	-3622
▁collegues	-3623
▁entretien	-3624
▁lendemain	-3625
▁nucleaire	-3626
▁passeport	-3627
▁questions	-3628
▁rencontre	-3629
▁auparavant	-3630
▁consideree	-3631
▁diagnostic	-3632
▁fabricants	-3633
▁importance	-3634
▁precedente	-3635
▁principale	-3636
▁television	-3637
▁thromboses	-3638
▁travailler	-3639
▁consequence	-3640
▁destruction	-3641
▁differentes	-3642
▁alimentation	-3643
▁comorbidites	-3644
▁laboratoires	-3645
▁mobilisation	-3646
▁transmission	-3647
▁organisations	-3648
▁internationaux	-3649
▁rassemblements	-3650
▁progressivement	-3651
gl	-3652
na	-3653
ox	-3654
ali	-3655
bdo	-3656
rue	-3657
ton	-3658
▁ts	-3659
crit	-3660
ctur	-3661
dats	-3662
duis	-3663
issi	-3664
resp	-3665
truc	-3666
unal	-3667
veux	-3668
vidu	-3669
▁alt	-3670
▁bol	-3671
▁dur	-3672
▁gel	-3673
▁has	-3674
▁moi	-3675
▁net	-3676
▁ouv	-3677
▁poi	-3678
▁ree	-3679
▁riv	-3680
▁sam	-3681
▁sin	-3682
▁tex	-3683
aises	-3684
erape	-3685
vants	-3686
zaine	-3687
▁aggl	-3688
▁amis	-3689
▁bata	-3690
▁bfmt	-3691
▁bleu	-3692
▁ciel	-3693
▁dras	-3694
▁empe	-3695
▁ence	-3696
▁evol	-3697
▁gout	-3698
▁gren	-3699
▁loge	-3700
▁lois	-3701
▁mand	-3702
▁path	-3703
▁prom	-3704
▁repe	-3705
▁sate	-3706
bdomad	-3707
eneurs	-3708
issant	-3709
lation	-3710
sonaro	-3711
taires	-3712
▁admis	-3713
▁appre	-3714
▁assoc	-3715
▁attes	-3716
▁bruit	-3717
▁candi	-3718
▁domin	-3719
▁flamb	-3720
▁glace	-3721
▁indep	-3722
▁livre	-3723
▁mecan	-3724
▁paral	-3725
▁prive	-3726
▁repar	-3727
▁salue	-3728
▁sauve	-3729
▁serum	-3730
▁vents	-3731
aissant	-3732
chement	-3733
▁agents	-3734
▁appris	-3735
▁calais	-3736
▁circul	-3737
▁contac	-3738
▁declen	-3739
▁devait	-3740
▁devenu	-3741
▁double	-3742
▁enfant	-3743
▁expert	-3744
▁faveur	-3745
▁gardes	-3746
▁hommes	-3747
▁indien	-3748
▁noctur	-3749
▁paques	-3750
▁parten	-3751
▁points	-3752
▁portee	-3753
▁ralent	-3754
▁situee	-3755
▁soumis	-3756
▁strict	-3757
▁submer	-3758
▁telles	-3759
▁tester	-3760
▁transf	-3761
▁visant	-3762
▁auteurs	-3763
▁categor	-3764
▁chancel	-3765
▁compren	-3766
▁conduit	-3767
▁devront	-3768
▁elevage	-3769
▁enneige	-3770
▁hauteur	-3771
▁locales	-3772
▁matinee	-3773
▁passage	-3774
▁vincent	-3775
▁voiture	-3776
▁accident	-3777
▁affaires	-3778
▁appelant	-3779
▁citoyens	-3780
▁commande	-3781
▁contexte	-3782
▁decennie	-3783
▁discours	-3784
▁document	-3785
▁experien	-3786
▁felicite	-3787
▁hebdomad	-3788
▁humaines	-3789
▁immunite	-3790
▁individu	-3791
▁maximale	-3792
▁officiel	-3793
▁physique	-3794
▁preparer	-3795
▁prolonge	-3796
▁province	-3797
▁touchees	-3798
▁tribunal	-3799
▁vaccinee	-3800
▁approcher	-3801
▁autotests	-3802
▁bolsonaro	-3803
▁campagnes	-3804
▁chasseurs	-3805
▁confiance	-3806
▁elephants	-3807
▁fondation	-3808
▁identifie	-3809
▁indonesie	-3810
▁injectees	-3811
▁lancement	-3812
▁magnitude	-3813
▁terrasses	-3814
▁voyageurs	-3815
▁apparition	-3816
▁beneficier	-3817
▁commercial	-3818
▁convaincre	-3819
▁diplomatie	-3820
▁directrice	-3821
▁electrique	-3822
▁entrainant	-3823
▁evacuation	-3824
▁extinction	-3825
▁infirmiers	-3826
▁occupation	-3827
▁inquietudes	-3828
▁alimentaires	-3829
▁amelioration	-3830
▁associations	-3831
▁catastrophes	-3832
▁generalement	-3833
▁initialement	-3834
▁prioritaires	-3835
▁recommandations	-3836
ho	-3837
hp	-3838
ko	-3839
ni	-3840
als	-3841
aud	-3842
aul	-3843
bon	-3844
dge	-3845
dri	-3846
ert	-3847
her	-3848
icn	-3849
icy	-3850
iop	-3851
las	-3852
mpe	-3853
rem	-3854
xes	-3855
yde	-3856
▁nd	-3857
anci	-3858
arma	-3859
carb	-3860
cons	-3861
dois	-3862
forn	-3863
iger	-3864
mons	-3865
olas	-3866
oler	-3867
ouse	-3868
sons	-3869
tail	-3870
tuel	-3871
uant	-3872
▁cov	-3873
▁don	-3874
▁ehp	-3875
▁gas	-3876
▁gib	-3877
▁may	-3878
▁tre	-3879
abeth	-3880
agnol	-3881
cepti	-3882
chant	-3883
cines	-3884
donie	-3885
illon	-3886
miner	-3887
sives	-3888
▁acte	-3889
▁bern	-3890
▁cali	-3891
▁coop	-3892
▁dele	-3893
▁epar	-3894
▁fera	-3895
▁fils	-3896
▁humi	-3897
▁jair	-3898
▁lrem	-3899
▁mari	-3900
▁peri	-3901
▁prim	-3902
▁rass	-3903
▁reci	-3904
▁rede	-3905
▁rhin	-3906
▁sang	-3907
▁sant	-3908
▁sons	-3909
▁stop	-3910
▁subi	-3911
▁tels	-3912
▁toit	-3913
▁venu	-3914
acites	-3915
armace	-3916
cessus	-3917
icycle	-3918
ilance	-3919
▁absol	-3920
▁accro	-3921
▁aires	-3922
▁armes	-3923
▁basse	-3924
▁bfmtv	-3925
▁breta	-3926
▁carac	-3927
▁coupe	-3928
▁david	-3929
▁derog	-3930
▁doule	-3931
▁etape	-3932
▁faits	-3933
▁flore	-3934
▁fonte	-3935
▁parle	-3936
▁poids	-3937
▁recru	-3938
▁rejet	-3939
▁tombe	-3940
▁yemen	-3941
demment	-3942
itement	-3943
tations	-3944
▁agglom	-3945
▁angela	-3946
▁assoup	-3947
▁avenir	-3948
▁bureau	-3949
▁cardia	-3950
▁daniel	-3951
▁degrad	-3952
▁depart	-3953
▁devoir	-3954
▁dresse	-3955
▁entier	-3956
▁envoye	-3957
▁espace	-3958
▁ethiop	-3959
▁exerci	-3960
▁existe	-3961
▁manger	-3962
▁munici	-3963
▁nettoy	-3964
▁pleine	-3965
▁plonge	-3966
▁produc	-3967
▁propag	-3968
▁reduit	-3969
▁regard	-3970
▁resume	-3971
▁arreter	-3972
▁besoins	-3973
▁chaleur	-3974
▁chargee	-3975
▁cheveux	-3976
▁commune	-3977
▁corresp	-3978
▁dessous	-3979
▁devenir	-3980
▁effectu	-3981
▁espaces	-3982
▁eurodep	-3983
▁exposes	-3984
▁fermees	-3985
▁fournir	-3986
▁liberte	-3987
▁massive	-3988
▁minutes	-3989
▁nicolas	-3990
▁suedois	-3991
▁tempete	-3992
▁touchee	-3993
issements	-3994
lications	-3995
▁belgique	-3996
▁bretagne	-3997
▁californ	-3998
▁commerce	-3999
▁devaient	-4000
▁distance	-4001
▁dommages	-4002
▁facteurs	-4003
▁naturels	-4004
▁observes	-4005
▁pharmace	-4006
▁renouvel	-4007
▁reserves	-4008
▁agricoles	-4009
▁capacites	-4010
▁concernes	-4011
▁contraint	-4012
▁marseille	-4013
▁medicales	-4014
▁pratiques	-4015
▁precisant	-4016
▁processus	-4017
▁progresse	-4018
▁realisees	-4019
▁respecter	-4020
▁technique	-4021
▁atmosphere	-4022
▁croissance	-4023
▁evenements	-4024
▁experience	-4025
▁francaises	-4026
▁permettent	-4027
▁phenomenes	-4028
▁politiques	-4029
▁prevention	-4030
▁provenance	-4031
▁secheresse	-4032
▁alimentaire	-4033
▁controverse	-4034
▁electricite	-4035
▁officielles	-4036
▁exploitation	-4037
▁arrondissement	-4038
▁environnemental	-4039
az	-4040
gh	-4041
ke	-4042
lr	-4043
ms	-4044
ack	-4045
ala	-4046
gee	-4047
lem	-4048
liv	-4049
ork	-4050
oul	-4051
tag	-4052
the	-4053
tig	-4054
ymp	-4055
▁il	-4056
▁ke	-4057
apie	-4058
chir	-4059
dros	-4060
hana	-4061
mark	-4062
rons	-4063
yons	-4064
▁att	-4065
▁cad	-4066
▁dar	-4067
▁din	-4068
▁emi	-4069
▁gly	-4070
▁gor	-4071
▁hol	-4072
▁kar	-4073
▁ode	-4074
▁sco	-4075
▁sis	-4076
▁zer	-4077
abite	-4078
asser	-4079
dents	-4080
endie	-4081
feres	-4082
ieure	-4083
ilite	-4084
oiree	-4085
onces	-4086
ondes	-4087
onter	-4088
oxyde	-4089
rales	-4090
tirer	-4091
unami	-4092
vidus	-4093
▁affl	-4094
▁alli	-4095
▁bati	-4096
▁club	-4097
▁dane	-4098
▁deme	-4099
▁diab	-4100
▁doma	-4101
▁exac	-4102
▁fati	-4103
▁foss	-4104
▁loup	-4105
▁mers	-4106
▁meur	-4107
▁ndlr	-4108
▁pere	-4109
▁pred	-4110
▁quit	-4111
▁sauf	-4112
▁tenu	-4113
▁uicn	-4114
▁vole	-4115
ensite	-4116
iement	-4117
mandes	-4118
olique	-4119
oquant	-4120
rogram	-4121
▁alarm	-4122
▁anglo	-4123
▁bless	-4124
▁borde	-4125
▁boule	-4126
▁bulle	-4127
▁champ	-4128
▁chute	-4129
▁cible	-4130
▁compe	-4131
▁creer	-4132
▁durer	-4133
▁ehpad	-4134
▁elarg	-4135
▁genre	-4136
▁ghana	-4137
▁hecta	-4138
▁illeg	-4139
▁marie	-4140
▁memes	-4141
▁modif	-4142
▁norma	-4143
▁patri	-4144
▁paulo	-4145
▁penur	-4146
▁plais	-4147
▁quart	-4148
▁retic	-4149
▁sites	-4150
▁solid	-4151
▁terri	-4152
▁voulu	-4153
ication	-4154
iterran	-4155
olement	-4156
ruption	-4157
▁adulte	-4158
▁auteur	-4159
▁avions	-4160
▁bateau	-4161
▁degres	-4162
▁deplac	-4163
▁disant	-4164
▁donald	-4165
▁echoue	-4166
▁ecosse	-4167
▁effort	-4168
▁enorme	-4169
▁figure	-4170
▁fruits	-4171
▁garder	-4172
▁glisse	-4173
▁histor	-4174
▁island	-4175
▁monter	-4176
▁normes	-4177
▁nouvel	-4178
▁photos	-4179
▁porter	-4180
▁qualif	-4181
▁quelqu	-4182
▁repris	-4183
▁reussi	-4184
▁routes	-4185
▁soiree	-4186
▁tedros	-4187
▁vagues	-4188
ventions	-4189
▁apporte	-4190
▁capture	-4191
▁chirurg	-4192
▁defendu	-4193
▁dioxyde	-4194
▁endroit	-4195
▁equival	-4196
▁esperer	-4197
▁etudier	-4198
▁explose	-4199
▁grosses	-4200
▁introdu	-4201
▁limites	-4202
▁masques	-4203
▁nations	-4204
▁produis	-4205
▁propres	-4206
▁publies	-4207
▁radioac	-4208
▁raisons	-4209
▁repondu	-4210
▁respire	-4211
▁tension	-4212
▁tsunami	-4213
▁univers	-4214
▁village	-4215
▁voisine	-4216
▁voyages	-4217
▁ancienne	-4218
▁approuve	-4219
▁chercher	-4220
▁consider	-4221
▁creation	-4222
▁danemark	-4223
▁decouver	-4224
▁detaille	-4225
▁endroits	-4226
▁fossiles	-4227
▁fragiles	-4228
▁frequent	-4229
▁menacees	-4230
▁montagne	-4231
▁poissons	-4232
▁profonde	-4233
▁quantite	-4234
▁regrette	-4235
▁retraite	-4236
▁sciences	-4237
▁transmet	-4238
▁urgences	-4239
▁allemande	-4240
▁benefices	-4241
▁complique	-4242
▁controles	-4243
▁decisions	-4244
▁deprogram	-4245
▁fortement	-4246
▁frontiere	-4247
▁hydrocarb	-4248
▁immediate	-4249
▁individus	-4250
▁intensite	-4251
▁nationaux	-4252
▁reacteurs	-4253
▁souffrant	-4254
▁superieur	-4255
▁californie	-4256
▁conteneurs	-4257
▁continuent	-4258
▁depression	-4259
▁evaluation	-4260
▁inquietude	-4261
▁livraisons	-4262
▁mediterran	-4263
▁militaires	-4264
▁permettant	-4265
▁presidence	-4266
▁totalement	-4267
▁americaines	-4268
▁ecologistes	-4269
▁enneigement	-4270
▁evacuations	-4271
▁prelevement	-4272
▁propagation	-4273
▁vulnerables	-4274
▁consultation	-4275
▁exceptionnel	-4276
▁journalistes	-4277
▁manifestants	-4278
▁prelevements	-4279
▁quotidiennes	-4280
▁statistiques	-4281
▁consommateurs	-4282
▁proliferation	-4283
▁meteorologique	-4284
▁pharmaceutique	-4285
▁gouvernementale	-4286
▁meteorologiques	-4287
ki	-4288
za	-4289
▁x	-4290
ael	-4291
agu	-4292
ani	-4293
con	-4294
cte	-4295
dir	-4296
fia	-4297
let	-4298
med	-4299
oux	-4300
par	-4301
til	-4302
uli	-4303
ull	-4304
▁cn	-4305
▁ed	-4306
▁iv	-4307
▁sm	-4308
abou	-4309
agos	-4310
aite	-4311
ault	-4312
book	-4313
cers	-4314
chee	-4315
clut	-4316
eren	-4317
iete	-4318
lait	-4319
mmes	-4320
odes	-4321
otte	-4322
oure	-4323
tnam	-4324
uela	-4325
vail	-4326
vise	-4327
xion	-4328
▁aqu	-4329
▁blo	-4330
▁dil	-4331
▁edi	-4332
▁exh	-4333
▁fri	-4334
▁han	-4335
▁hem	-4336
▁ita	-4337
▁lac	-4338
▁lau	-4339
▁loi	-4340
▁mam	-4341
▁mel	-4342
▁nou	-4343
▁pec	-4344
▁pru	-4345
▁rob	-4346
▁sig	-4347
agner	-4348
alles	-4349
arite	-4350
arson	-4351
dique	-4352
geres	-4353
heure	-4354
ievre	-4355
isent	-4356
mener	-4357
orant	-4358
osant	-4359
peace	-4360
quait	-4361
tante	-4362
tiles	-4363
truit	-4364
usant	-4365
viend	-4366
▁amaz	-4367
▁cris	-4368
▁desc	-4369
▁egyp	-4370
▁encl	-4371
▁enva	-4372
▁eric	-4373
▁flor	-4374
▁foot	-4375
▁form	-4376
▁gasp	-4377
▁inra	-4378
▁joue	-4379
▁lond	-4380
▁lour	-4381
▁ours	-4382
▁pied	-4383
▁piqu	-4384
▁renv	-4385
▁role	-4386
▁sure	-4387
▁vale	-4388
▁zero	-4389
apagos	-4390
cience	-4391
gation	-4392
istant	-4393
itaine	-4394
tieres	-4395
▁armee	-4396
▁cellu	-4397
▁chois	-4398
▁court	-4399
▁coute	-4400
▁delhi	-4401
▁depit	-4402
▁derou	-4403
▁deses	-4404
▁devra	-4405
▁douce	-4406
▁geant	-4407
▁glaci	-4408
▁legis	-4409
▁lever	-4410
▁liban	-4411
▁loire	-4412
▁magma	-4413
▁mouve	-4414
▁nepal	-4415
▁panda	-4416
▁peint	-4417
▁proto	-4418
▁reper	-4419
▁riche	-4420
▁sofia	-4421
▁survi	-4422
▁timor	-4423
▁trouv	-4424
▁verts	-4425
▁veter	-4426
▁vraie	-4427
culaire	-4428
illages	-4429
lations	-4430
travail	-4431
▁accuse	-4432
▁aerien	-4433
▁ambass	-4434
▁auront	-4435
▁chemin	-4436
▁conclu	-4437
▁conten	-4438
▁contes	-4439
▁denonc	-4440
▁devons	-4441
▁discus	-4442
▁faudra	-4443
▁guepes	-4444
▁humain	-4445
▁intent	-4446
▁interp	-4447
▁lycees	-4448
▁maires	-4449
▁mandat	-4450
▁navire	-4451
▁normal	-4452
▁observ	-4453
▁office	-4454
▁partis	-4455
▁patron	-4456
▁plaide	-4457
▁pollen	-4458
▁prefet	-4459
▁prives	-4460
▁ravage	-4461
▁stress	-4462
▁suisse	-4463
▁totale	-4464
▁tropic	-4465
▁vulcan	-4466
culaires	-4467
▁adopter	-4468
▁affiche	-4469
▁artific	-4470
▁atteign	-4471
▁barbara	-4472
▁cancers	-4473
▁celebre	-4474
▁charbon	-4475
▁chauves	-4476
▁contact	-4477
▁destine	-4478
▁evacues	-4479
▁faibles	-4480
▁freiner	-4481
▁globale	-4482
▁importe	-4483
▁inhabit	-4484
▁inverse	-4485
▁mauvais	-4486
▁passant	-4487
▁pompili	-4488
▁prepare	-4489
▁quitter	-4490
▁rejoint	-4491
▁rejouit	-4492
▁relache	-4493
▁ressent	-4494
▁siecles	-4495
▁souffle	-4496
▁suggere	-4497
▁therape	-4498
▁valerie	-4499
▁vietnam	-4500
ification	-4501
▁ajoutant	-4502
▁ambition	-4503
▁bataille	-4504
▁colleges	-4505
▁communes	-4506
▁craintes	-4507
▁decedees	-4508
▁durement	-4509
▁elements	-4510
▁employes	-4511
▁estimant	-4512
▁facebook	-4513
▁faudrait	-4514
▁freinage	-4515
▁humanite	-4516
▁maitrise	-4517
▁malheure	-4518
▁mauvaise	-4519
▁montrant	-4520
▁neurolog	-4521
▁patiente	-4522
▁pourcent	-4523
▁previent	-4524
▁provence	-4525
▁realises	-4526
▁scenario	-4527
▁sensibil	-4528
▁survenue	-4529
▁suscepti	-4530
▁temoigne	-4531
▁trouvent	-4532
▁utiliser	-4533
▁vaccinal	-4534
lementaire	-4535
▁autoriser	-4536
▁blessures	-4537
▁caledonie	-4538
▁captivite	-4539
▁essentiel	-4540
▁etrangers	-4541
▁franceinf	-4542
▁galapagos	-4543
▁interdits	-4544
▁intermedi	-4545
▁militants	-4546
▁mobilises	-4547
▁nettoyage	-4548
▁officiels	-4549
▁ouverture	-4550
▁rappelant	-4551
▁reconnait	-4552
▁reference	-4553
▁venezuela	-4554
▁vigilance	-4555
▁accompagne	-4556
▁assistance	-4557
▁biologiste	-4558
▁braconnage	-4559
▁chercheuse	-4560
▁clairement	-4561
▁defenseurs	-4562
▁equivalent	-4563
▁greenpeace	-4564
▁initiative	-4565
▁substances	-4566
▁uniquement	-4567
▁apiculteurs	-4568
▁deploiement	-4569
▁directement	-4570
▁generations	-4571
▁pathologies	-4572
▁principales	-4573
▁teletravail	-4574
▁touristique	-4575
▁traitements	-4576
▁comportement	-4577
▁indonesienne	-4578
▁intervention	-4579
▁respiratoire	-4580
▁contamination	-4581
▁contrairement	-4582
▁officiellement	-4583
▁epidemiologiste	-4584
▁essentiellement	-4585
▁experimentation	-4586
▁malheureusement	-4587
af	-4588
gt	-4589
rs	-4590
ama	-4591
bas	-4592
dig	-4593
gin	-4594
lia	-4595
lin	-4596
mir	-4597
nel	-4598
rus	-4599
top	-4600
▁og	-4601
▁pu	-4602
arre	-4603
asie	-4604
ates	-4605
cans	-4606
ding	-4607
ides	-4608
illi	-4609
lees	-4610
oura	-4611
phos	-4612
rees	-4613
sant	-4614
tian	-4615
user	-4616
vait	-4617
ysee	-4618
zoph	-4619
▁aig	-4620
▁alb	-4621
▁amp	-4622
▁aur	-4623
▁cig	-4624
▁cla	-4625
▁cub	-4626
▁enj	-4627
▁ere	-4628
▁eut	-4629
▁evi	-4630
▁exc	-4631
▁gro	-4632
▁jac	-4633
▁lou	-4634
▁mou	-4635
▁nos	-4636
▁ped	-4637
▁ray	-4638
▁sac	-4639
▁tor	-4640
allis	-4641
cence	-4642
cotra	-4643
crire	-4644
dorat	-4645
endue	-4646
ibles	-4647
oconf	-4648
riser	-4649
sible	-4650
tages	-4651
▁ajou	-4652
▁argu	-4653
▁avez	-4654
▁bale	-4655
▁brun	-4656
▁cafe	-4657
▁cath	-4658
▁coag	-4659
▁emet	-4660
▁ends	-4661
▁expl	-4662
▁greg	-4663
▁legu	-4664
▁pins	-4665
▁plas	-4666
▁pont	-4667
▁souf	-4668
▁voix	-4669
▁vrai	-4670
alites	-4671
ection	-4672
erieur	-4673
iciles	-4674
imetre	-4675
istent	-4676
mieres	-4677
naires	-4678
nthese	-4679
ologne	-4680
outine	-4681
rement	-4682
uelles	-4683
▁aband	-4684
▁aides	-4685
▁aient	-4686
▁antig	-4687
▁attra	-4688
▁avion	-4689
▁chron	-4690
▁coord	-4691
▁debar	-4692
▁emble	-4693
▁exces	-4694
▁exige	-4695
▁fille	-4696
▁fleur	-4697
▁foyer	-4698
▁gagne	-4699
▁levee	-4700
▁mains	-4701
▁mammi	-4702
▁oppos	-4703
▁perou	-4704
▁perte	-4705
▁sable	-4706
▁suede	-4707
▁suedo	-4708
▁suici	-4709
▁tente	-4710
▁unies	-4711
▁venue	-4712
▁verte	-4713
blement	-4714
tension	-4715
tieuses	-4716
tivites	-4717
▁afflux	-4718
▁apport	-4719
▁atlant	-4720
▁cheffe	-4721
▁colomb	-4722
▁couple	-4723
▁defini	-4724
▁divers	-4725
▁droits	-4726
▁elysee	-4727
▁entend	-4728
▁etudie	-4729
▁euthan	-4730
▁exclus	-4731
▁financ	-4732
▁futuna	-4733
▁lancee	-4734
▁majeur	-4735
▁occupe	-4736
▁odorat	-4737
▁palais	-4738
▁pandas	-4739
▁passee	-4740
▁pauvre	-4741
▁precip	-4742
▁preuve	-4743
▁prison	-4744
▁rejete	-4745
▁revele	-4746
▁situes	-4747
▁souten	-4748
▁succes	-4749
▁suivre	-4750
▁teleph	-4751
▁textes	-4752
▁tomber	-4753
▁vallee	-4754
ellement	-4755
▁acheter	-4756
▁anxiete	-4757
▁attendu	-4758
▁attente	-4759
▁avertit	-4760
▁barrage	-4761
▁bateaux	-4762
▁chambre	-4763
▁changer	-4764
▁devasta	-4765
▁diabete	-4766
▁diminue	-4767
▁douleur	-4768
▁durable	-4769
▁echange	-4770
▁frappes	-4771
▁imposer	-4772
▁marches	-4773
▁maurici	-4774
▁menaces	-4775
▁mentale	-4776
▁mesurer	-4777
▁ouverte	-4778
▁ouverts	-4779
▁perspec	-4780
▁pollens	-4781
▁pologne	-4782
▁privile	-4783
▁protoco	-4784
▁rencont	-4785
▁reprise	-4786
▁respect	-4787
▁socotra	-4788
▁temoign	-4789
▁trouver	-4790
▁tunisie	-4791
▁volcans	-4792
uellement	-4793
▁affronte	-4794
▁alimente	-4795
▁amazonie	-4796
▁analyses	-4797
▁captures	-4798
▁connaiss	-4799
▁deployer	-4800
▁destinee	-4801
▁diffusee	-4802
▁effondre	-4803
▁fabrique	-4804
▁habitant	-4805
▁hectares	-4806
▁independ	-4807
▁intensif	-4808
▁japonais	-4809
▁laissant	-4810
▁liberaux	-4811
▁maintien	-4812
▁materiel	-4813
▁oriental	-4814
▁pecresse	-4815
▁realisee	-4816
▁remettre	-4817
▁repousse	-4818
▁signifie	-4819
▁tourisme	-4820
▁affirment	-4821
▁ambitieux	-4822
▁attendues	-4823
▁culturels	-4824
▁decennies	-4825
▁diffusion	-4826
▁forcement	-4827
▁genetique	-4828
▁interromp	-4829
▁isolement	-4830
▁manifeste	-4831
▁meilleure	-4832
▁militaire	-4833
▁policiers	-4834
▁populaire	-4835
▁protegees	-4836
▁quasiment	-4837
▁reflexion	-4838
▁sentiment	-4839
▁sidaction	-4840
▁territori	-4841
▁veritable	-4842
▁visioconf	-4843
▁conscience	-4844
▁correspond	-4845
▁difficiles	-4846
▁diminution	-4847
▁disponible	-4848
▁exactement	-4849
▁federation	-4850
▁indicateur	-4851
▁mammiferes	-4852
▁participer	-4853
▁psychiatri	-4854
▁resolution	-4855
▁cooperation	-4856
▁degradation	-4857
▁entierement	-4858
▁infirmieres	-4859
▁normalement	-4860
▁photographe	-4861
▁pourcentage	-4862
▁recensement	-4863
▁concertation	-4864
▁infectieuses	-4865
▁negociations	-4866
▁presentation	-4867
▁proprietaire	-4868
▁significatif	-4869
▁specialistes	-4870
▁communication	-4871
▁hydrocarbures	-4872
▁reconfinement	-4873
▁manifestations	-4874
▁visioconference	-4875
gs	-4876
gy	-4877
ju	-4878
zi	-4879
cum	-4880
ece	-4881
eng	-4882
ese	-4883
jok	-4884
obi	-4885
omp	-4886
roy	-4887
▁gh	-4888
▁mu	-4889
▁pr	-4890
▁sh	-4891
dici	-4892
dure	-4893
heim	-4894
icus	-4895
ladi	-4896
mise	-4897
outh	-4898
quet	-4899
sias	-4900
sifs	-4901
uire	-4902
usti	-4903
utri	-4904
ynam	-4905
▁arn	-4906
▁clo	-4907
▁dau	-4908
▁fag	-4909
▁fel	-4910
▁fis	-4911
▁fun	-4912
▁ghe	-4913
▁gul	-4914
▁ice	-4915
▁ken	-4916
▁lan	-4917
▁onc	-4918
▁oub	-4919
▁pav	-4920
▁raf	-4921
▁rea	-4922
arent	-4923
auche	-4924
drome	-4925
enone	-4926
hanom	-4927
iries	-4928
janes	-4929
lieue	-4930
limin	-4931
llite	-4932
loupe	-4933
louse	-4934
minee	-4935
ogene	-4936
onent	-4937
ormes	-4938
ourne	-4939
rions	-4940
tabil	-4941
teure	-4942
ufuli	-4943
yesus	-4944
▁agir	-4945
▁alex	-4946
▁anes	-4947
▁ansm	-4948
▁appu	-4949
▁arab	-4950
▁bomb	-4951
▁carg	-4952
▁dons	-4953
▁empl	-4954
▁faim	-4955
▁fall	-4956
▁file	-4957
▁flac	-4958
▁fuel	-4959
▁juri	-4960
▁leop	-4961
▁neut	-4962
▁pari	-4963
▁pole	-4964
▁pret	-4965
▁sond	-4966
▁syri	-4967
▁tche	-4968
▁tire	-4969
▁toma	-4970
▁trau	-4971
▁uter	-4972
▁vain	-4973
▁vign	-4974
▁voil	-4975
aisses	-4976
cteurs	-4977
diguer	-4978
endies	-4979
enland	-4980
mestre	-4981
minees	-4982
ospher	-4983
raltar	-4984
reinte	-4985
▁absor	-4986
▁acade	-4987
▁accum	-4988
▁anses	-4989
▁appli	-4990
▁autri	-4991
▁bases	-4992
▁ceris	-4993
▁chien	-4994
▁circu	-4995
▁doigt	-4996
▁doute	-4997
▁forts	-4998
▁frank	-4999
▁guade	-5000
▁hotel	-5001
▁impac	-5002
▁impre	-5003
▁incer	-5004
▁jugee	-5005
▁mayla	-5006
▁metro	-5007
▁mises	-5008
▁monte	-5009
▁niger	-5010
▁pieds	-5011
▁piste	-5012
▁ports	-5013
▁recol	-5014
▁reinf	-5015
▁rober	-5016
▁sorti	-5017
▁spati	-5018
▁tient	-5019
▁tigre	-5020
▁tromp	-5021
▁turqu	-5022
▁velos	-5023
▁vladi	-5024
abilite	-5025
ernicus	-5026
gnation	-5027
housias	-5028
istants	-5029
phosate	-5030
▁abonde	-5031
▁abrite	-5032
▁accent	-5033
▁alarme	-5034
▁antece	-5035
▁avocat	-5036
▁betail	-5037
▁bilans	-5038
▁calcul	-5039
▁cambod	-5040
▁dalles	-5041
▁depose	-5042
▁echant	-5043
▁elevee	-5044
▁expans	-5045
▁gendar	-5046
▁ghebre	-5047
▁intere	-5048
▁judici	-5049
▁legere	-5050
▁lourds	-5051
▁membre	-5052
▁menees	-5053
▁numero	-5054
▁pascal	-5055
▁precis	-5056
▁prevue	-5057
▁proces	-5058
▁promet	-5059
▁propor	-5060
▁quitte	-5061
▁recomp	-5062
▁rennes	-5063
▁saumon	-5064
▁savons	-5065
▁specif	-5066
▁sujets	-5067
▁unites	-5068
▁valeur	-5069
▁valoir	-5070
▁vivant	-5071
fication	-5072
ynamique	-5073
▁adhanom	-5074
▁aggrave	-5075
▁antigen	-5076
▁arriere	-5077
▁benzoph	-5078
▁bernard	-5079
▁bouches	-5080
▁charles	-5081
▁circule	-5082
▁conclus	-5083
▁contrer	-5084
▁couches	-5085
▁defavor	-5086
▁deploye	-5087
▁docteur	-5088
▁engages	-5089
▁flambee	-5090
▁iceberg	-5091
▁lumiere	-5092
▁mettant	-5093
▁occupes	-5094
▁prevues	-5095
▁procede	-5096
▁reclame	-5097
▁records	-5098
▁rentree	-5099
▁retrouv	-5100
▁revenir	-5101
▁science	-5102
▁suscite	-5103
▁tempere	-5104
▁traiter	-5105
▁tribune	-5106
▁virtuel	-5107
▁vouloir	-5108
onnements	-5109
▁affectes	-5110
▁africain	-5111
▁alliance	-5112
▁ameliore	-5113
▁annonces	-5114
▁banlieue	-5115
▁bordeaux	-5116
▁commerci	-5117
▁comptait	-5118
▁conduire	-5119
▁demandes	-5120
▁detecter	-5121
▁emission	-5122
▁endiguer	-5123
▁environs	-5124
▁envisage	-5125
▁ethiopie	-5126
▁extremes	-5127
▁magufuli	-5128
▁nocturne	-5129
▁occident	-5130
▁platefor	-5131
▁portugal	-5132
▁position	-5133
▁prelimin	-5134
▁regional	-5135
▁retarder	-5136
▁speciale	-5137
▁systemes	-5138
▁tensions	-5139
▁totalite	-5140
▁victoire	-5141
▁vladimir	-5142
▁alarmante	-5143
▁ambassade	-5144
▁appellent	-5145
▁carburant	-5146
▁categorie	-5147
▁christian	-5148
▁condition	-5149
▁confinees	-5150
▁detection	-5151
▁drastique	-5152
▁empreinte	-5153
▁enceintes	-5154
▁encourage	-5155
▁entrainer	-5156
▁gibraltar	-5157
▁groenland	-5158
▁hemicycle	-5159
▁incendies	-5160
▁inferieur	-5161
▁interdire	-5162
▁interdite	-5163
▁lentement	-5164
▁logements	-5165
▁maintenir	-5166
▁ministres	-5167
▁mondiales	-5168
▁nettement	-5169
▁numerique	-5170
▁provoquer	-5171
▁publiques	-5172
▁puissance	-5173
▁rapproche	-5174
▁reglement	-5175
▁residents	-5176
▁reykjanes	-5177
▁satellite	-5178
▁structure	-5179
▁confrontee	-5180
▁copernicus	-5181
▁corruption	-5182
▁couverture	-5183
▁ecologiste	-5184
▁endommages	-5185
▁enthousias	-5186
▁euthanasie	-5187
▁evidemment	-5188
▁forestiere	-5189
▁frequences	-5190
▁gaspillage	-5191
▁glyphosate	-5192
▁guadeloupe	-5193
▁historique	-5194
▁inquietant	-5195
▁nationales	-5196
▁officielle	-5197
▁principaux	-5198
▁reticences	-5199
▁superieure	-5200
▁techniques	-5201
▁aggravation	-5202
▁attestation	-5203
▁chanceliere	-5204
▁coagulation	-5205
▁communautes	-5206
▁disparaitre	-5207
▁disparition	-5208
▁disposition	-5209
▁economiques	-5210
▁ecosystemes	-5211
▁ghebreyesus	-5212
▁glissements	-5213
▁impressionn	-5214
▁insuffisant	-5215
▁progression	-5216
▁veterinaire	-5217
▁benzophenone	-5218
▁construction	-5219
▁particuliere	-5220
▁renforcement	-5221
▁agglomeration	-5222
▁collectivites	-5223
▁spectaculaire	-5224
▁precipitations	-5225
▁respectivement	-5226
▁internationales	-5227
ah	-5228
dc	-5229
ob	-5230
sc	-5231
ty	-5232
yo	-5233
ami	-5234
apt	-5235
arc	-5236
aya	-5237
bal	-5238
els	-5239
enh	-5240
fes	-5241
ids	-5242
ith	-5243
lib	-5244
mea	-5245
ple	-5246
rak	-5247
ugu	-5248
uil	-5249
ung	-5250
xag	-5251
▁id	-5252
▁ol	-5253
▁tu	-5254
▁ul	-5255
▁zo	-5256
ader	-5257
aill	-5258
assi	-5259
atem	-5260
atre	-5261
dant	-5262
esel	-5263
eure	-5264
fait	-5265
gene	-5266
gnon	-5267
ible	-5268
lons	-5269
mans	-5270
oirs	-5271
olle	-5272
tine	-5273
udec	-5274
▁ath	-5275
▁avi	-5276
▁civ	-5277
▁cur	-5278
▁dix	-5279
▁epu	-5280
▁fic	-5281
▁foy	-5282
▁gig	-5283
▁gir	-5284
▁gmt	-5285
▁gol	-5286
▁hes	-5287
▁inn	-5288
▁kil	-5289
▁lag	-5290
▁ogm	-5291
▁sab	-5292
▁sch	-5293
▁sil	-5294
alsfj	-5295
ander	-5296
anges	-5297
atrie	-5298
entre	-5299
hamed	-5300
illee	-5301
onses	-5302
phins	-5303
trant	-5304
uguay	-5305
usees	-5306
usses	-5307
▁agro	-5308
▁ambi	-5309
▁arme	-5310
▁bapt	-5311
▁bebe	-5312
▁bulg	-5313
▁ceci	-5314
▁chat	-5315
▁cine	-5316
▁cles	-5317
▁code	-5318
▁coin	-5319
▁coll	-5320
▁donn	-5321
▁eche	-5322
▁emer	-5323
▁epic	-5324
▁erre	-5325
▁fern	-5326
▁fiss	-5327
▁grin	-5328
▁irak	-5329
▁iran	-5330
▁irre	-5331
▁jard	-5332
▁mach	-5333
▁male	-5334
▁mati	-5335
▁onze	-5336
▁ores	-5337
▁oura	-5338
▁park	-5339
▁pier	-5340
▁proc	-5341
▁rats	-5342
▁reli	-5343
▁rome	-5344
▁sols	-5345
▁succ	-5346
▁suff	-5347
▁thor	-5348
▁veux	-5349
▁york	-5350
aisons	-5351
atrice	-5352
gneurs	-5353
ieuses	-5354
illent	-5355
issile	-5356
jokull	-5357
rasser	-5358
tenant	-5359
utions	-5360
▁accru	-5361
▁antic	-5362
▁avais	-5363
▁azote	-5364
▁bison	-5365
▁boute	-5366
▁camer	-5367
▁chaud	-5368
▁decre	-5369
▁degra	-5370
▁degre	-5371
▁desas	-5372
▁dossi	-5373
▁ecrit	-5374
▁embar	-5375
▁fioul	-5376
▁fonde	-5377
▁heber	-5378
▁lille	-5379
▁mahar	-5380
▁major	-5381
▁marge	-5382
▁mener	-5383
▁mexic	-5384
▁parta	-5385
▁parue	-5386
▁preco	-5387
▁prele	-5388
▁prema	-5389
▁remor	-5390
▁river	-5391
▁scand	-5392
▁sebas	-5393
▁sport	-5394
▁steph	-5395
▁syrie	-5396
▁tchad	-5397
▁theor	-5398
▁tremb	-5399
▁triti	-5400
▁types	-5401
▁venus	-5402
▁viole	-5403
liennes	-5404
ousseau	-5405
rastruc	-5406
senheim	-5407
▁actifs	-5408
▁active	-5409
▁allege	-5410
▁antici	-5411
▁appare	-5412
▁blesse	-5413
▁champs	-5414
▁citant	-5415
▁concre	-5416
▁craign	-5417
▁demain	-5418
▁demand	-5419
▁diesel	-5420
▁dromad	-5421
▁enclos	-5422
▁epoque	-5423
▁export	-5424
▁fagrad	-5425
▁foyers	-5426
▁franci	-5427
▁galles	-5428
▁global	-5429
▁guatem	-5430
▁handic	-5431
▁incroy	-5432
▁instau	-5433
▁lourde	-5434
▁nantes	-5435
▁neutra	-5436
▁norveg	-5437
▁noumea	-5438
▁obtenu	-5439
▁perman	-5440
▁places	-5441
▁plaint	-5442
▁poumon	-5443
▁promes	-5444
▁quinze	-5445
▁refuse	-5446
▁regime	-5447
▁reunir	-5448
▁servir	-5449
▁soudan	-5450
▁tchadi	-5451
▁tempor	-5452
▁uterus	-5453
▁vaisse	-5454
▁vastes	-5455
▁ventil	-5456
▁voisin	-5457
alsfjall	-5458
descence	-5459
istiques	-5460
▁actions	-5461
▁alterna	-5462
▁blesses	-5463
▁bougies	-5464
▁capital	-5465
▁cigales	-5466
▁circons	-5467
▁conflit	-5468
▁connait	-5469
▁coulees	-5470
▁devient	-5471
▁domaine	-5472
▁emporte	-5473
▁enfance	-5474
▁epargne	-5475
▁etablir	-5476
▁etendue	-5477
▁ethique	-5478
▁evacuer	-5479
▁evalues	-5480
▁examine	-5481
▁exprime	-5482
▁fallait	-5483
▁femelle	-5484
▁franchi	-5485
▁guludec	-5486
▁hommage	-5487
▁inscrit	-5488
▁intense	-5489
▁majeure	-5490
▁marines	-5491
▁mettent	-5492
▁mohamed	-5493
▁panique	-5494
▁penurie	-5495
▁positif	-5496
▁poumons	-5497
▁poutine	-5498
▁ramener	-5499
▁recente	-5500
▁reprodu	-5501
▁ressort	-5502
▁royales	-5503
▁satures	-5504
▁soignes	-5505
▁soldats	-5506
▁souffre	-5507
▁uruguay	-5508
▁usagers	-5509
▁victime	-5510
▁visible	-5511
▁attaques	-5512
▁attendue	-5513
▁cambodge	-5514
▁cantines	-5515
▁collecte	-5516
▁colombie	-5517
▁colonnes	-5518
▁complexe	-5519
▁comptage	-5520
▁comptant	-5521
▁dauphins	-5522
▁deplacer	-5523
▁deployes	-5524
▁effectue	-5525
▁engendre	-5526
▁entendre	-5527
▁etudiant	-5528
▁exposees	-5529
▁hollande	-5530
▁immediat	-5531
▁incendie	-5532
▁injecter	-5533
▁investig	-5534
▁lesquels	-5535
▁location	-5536
▁matignon	-5537
▁meilleur	-5538
▁messager	-5539
▁observee	-5540
▁ouvertes	-5541
▁parvenir	-5542
▁peinture	-5543
▁primaire	-5544
▁proceder	-5545
▁prochain	-5546
▁produite	-5547
▁proposer	-5548
▁rassurer	-5549
▁repertor	-5550
▁reponses	-5551
▁reprises	-5552
▁routiere	-5553
▁scolaire	-5554
▁sismique	-5555
▁soignant	-5556
▁souvient	-5557
▁stations	-5558
▁therapie	-5559
▁toxiques	-5560
▁villages	-5561
itairement	-5562
▁atmospher	-5563
▁cerisiers	-5564
▁commandes	-5565
▁compagnie	-5566
▁comptabil	-5567
▁constitue	-5568
▁contraign	-5569
▁decouvert	-5570
▁desespere	-5571
▁dominique	-5572
▁dynamique	-5573
▁effectifs	-5574
▁elections	-5575
▁entourage	-5576
▁envisager	-5577
▁epicentre	-5578
▁eruptions	-5579
▁expansion	-5580
▁explosion	-5581
▁frequents	-5582
▁gravement	-5583
▁grossesse	-5584
▁infectees	-5585
▁intention	-5586
▁montagnes	-5587
▁mouvement	-5588
▁organisee	-5589
▁perimetre	-5590
▁preconise	-5591
▁presentes	-5592
▁preserver	-5593
▁procedure	-5594
▁produites	-5595
▁protocole	-5596
▁renforcee	-5597
▁reprendre	-5598
▁similaire	-5599
▁suspendue	-5600
▁tellement	-5601
▁terrestre	-5602
▁thrombose	-5603
▁utilisees	-5604
▁atlantique	-5605
▁conseiller	-5606
▁determiner	-5607
▁ecosysteme	-5608
▁endemiques	-5609
▁eventuelle	-5610
▁fessenheim	-5611
▁franceinfo	-5612
▁identifier	-5613
▁infrastruc	-5614
▁lesquelles	-5615
▁naturelles	-5616
▁organismes	-5617
▁pharmacies	-5618
▁plateforme	-5619
▁provoquant	-5620
▁regulation	-5621
▁situations	-5622
▁specifique	-5623
▁terrestres	-5624
▁administrer	-5625
▁antecedents	-5626
▁application	-5627
▁bresilienne	-5628
▁financement	-5629
▁fonctionner	-5630
▁globalement	-5631
▁inquietante	-5632
▁israelienne	-5633
▁partenaires	-5634
▁permettrait	-5635
▁perspective	-5636
▁preparation	-5637
▁progressive	-5638
▁technologie	-5639
▁completement	-5640
▁distribution	-5641
▁effondrement	-5642
▁entrainement	-5643
▁gratuitement	-5644
▁hebdomadaire	-5645
▁preoccupante	-5646
▁radioactives	-5647
▁representent	-5648
▁susceptibles	-5649
▁gouvernements	-5650
▁immediatement	-5651
▁recrudescence	-5652
▁exceptionnelle	-5653
▁fagradalsfjall	-5654
▁habituellement	-5655
▁parlementaires	-5656
▁recommandation	-5657
▁assouplissement	-5658
▁infrastructures	-5659
cr	-5660
cs	-5661
ld	-5662
ng	-5663
yn	-5664
ail	-5665
amb	-5666
ame	-5667
aus	-5668
ctu	-5669
del	-5670
had	-5671
ian	-5672
idh	-5673
igh	-5674
ild	-5675
ind	-5676
isp	-5677
nec	-5678
ovi	-5679
rat	-5680
ror	-5681
tab	-5682
tim	-5683
yja	-5684
▁cc	-5685
▁ki	-5686
▁ko	-5687
▁oe	-5688
▁os	-5689
alie	-5690
alla	-5691
ando	-5692
arib	-5693
cipe	-5694
cton	-5695
ello	-5696
enos	-5697
eros	-5698
fice	-5699
inet	-5700
ings	-5701
lemy	-5702
lere	-5703
mies	-5704
mona	-5705
nant	-5706
nees	-5707
omon	-5708
ouff	-5709
rats	-5710
tale	-5711
ulte	-5712
uves	-5713
▁arb	-5714
▁art	-5715
▁bor	-5716
▁bri	-5717
▁cab	-5718
▁cac	-5719
▁ccc	-5720
▁coh	-5721
▁cyc	-5722
▁esc	-5723
▁glu	-5724
▁hor	-5725
▁ide	-5726
▁jon	-5727
▁jou	-5728
▁kos	-5729
▁lux	-5730
▁nas	-5731
▁oct	-5732
▁ore	-5733
▁pic	-5734
▁pit	-5735
▁pul	-5736
▁rup	-5737
▁sei	-5738
▁tap	-5739
agent	-5740
aibes	-5741
alise	-5742
andez	-5743
aridh	-5744
athie	-5745
atifs	-5746
berie	-5747
chers	-5748
idjan	-5749
ierry	-5750
ionne	-5751
iront	-5752
javik	-5753
lable	-5754
licop	-5755
meier	-5756
miste	-5757
monie	-5758
olont	-5759
ruire	-5760
tophe	-5761
uille	-5762
valle	-5763
viser	-5764
yjafj	-5765
▁abou	-5766
▁aime	-5767
▁allu	-5768
▁aper	-5769
▁audi	-5770
▁boue	-5771
▁cami	-5772
▁chim	-5773
▁choc	-5774
▁dite	-5775
▁duch	-5776
▁elab	-5777
▁eliz	-5778
▁faci	-5779
▁gare	-5780
▁gouv	-5781
▁hori	-5782
▁jane	-5783
▁jose	-5784
▁mefi	-5785
▁mega	-5786
▁mens	-5787
▁mole	-5788
▁mots	-5789
▁mout	-5790
▁nids	-5791
▁nuis	-5792
▁pese	-5793
▁renf	-5794
▁sale	-5795
▁saou	-5796
▁satu	-5797
▁sele	-5798
▁shan	-5799
▁sida	-5800
▁soup	-5801
▁souv	-5802
▁spor	-5803
▁suie	-5804
▁surm	-5805
▁surs	-5806
▁susc	-5807
▁tuer	-5808
▁vali	-5809
▁vaut	-5810
abitee	-5811
agnols	-5812
ashtra	-5813
assent	-5814
enaire	-5815
ispens	-5816
minant	-5817
oceros	-5818
ourner	-5819
rieres	-5820
sibles	-5821
tables	-5822
tences	-5823
uments	-5824
xagone	-5825
▁abrit	-5826
▁accue	-5827
▁agres	-5828
▁amour	-5829
▁anony	-5830
▁babou	-5831
▁betes	-5832
▁budge	-5833
▁cereb	-5834
▁chats	-5835
▁cinqu	-5836
▁clair	-5837
▁coali	-5838
▁congo	-5839
▁coral	-5840
▁corre	-5841
▁corse	-5842
▁defis	-5843
▁diver	-5844
▁domes	-5845
▁ecoss	-5846
▁elect	-5847
▁enter	-5848
▁entra	-5849
▁envah	-5850
▁equip	-5851
▁eradi	-5852
▁etais	-5853
▁geoph	-5854
▁ingen	-5855
▁intub	-5856
▁jaune	-5857
▁jeter	-5858
▁kenya	-5859
▁madri	-5860
▁marne	-5861
▁marte	-5862
▁meurt	-5863
▁motif	-5864
▁murat	-5865
▁noire	-5866
▁nutri	-5867
▁peter	-5868
▁photo	-5869
▁plant	-5870
▁reapp	-5871
▁recon	-5872
▁refus	-5873
▁regle	-5874
▁reint	-5875
▁repas	-5876
▁roche	-5877
▁royal	-5878
▁sages	-5879
▁saliv	-5880
▁sente	-5881
▁signa	-5882
▁strat	-5883
▁tardi	-5884
▁titre	-5885
▁tradu	-5886
▁unice	-5887
▁utile	-5888
▁vieil	-5889
▁voila	-5890
ordanie	-5891
thelemy	-5892
titudes	-5893
▁abattu	-5894
▁amazon	-5895
▁amener	-5896
▁appren	-5897
▁arabie	-5898
▁bombay	-5899
▁buenos	-5900
▁cercle	-5901
▁chaude	-5902
▁colere	-5903
▁concep	-5904
▁coupee	-5905
▁course	-5906
▁croire	-5907
▁debord	-5908
▁debris	-5909
▁defend	-5910
▁delais	-5911
▁demont	-5912
▁depres	-5913
▁destin	-5914
▁direct	-5915
▁egypte	-5916
▁energe	-5917
▁enseig	-5918
▁entame	-5919
▁esprit	-5920
▁eyjafj	-5921
▁facile	-5922
▁faites	-5923
▁fievre	-5924
▁filmee	-5925
▁franco	-5926
▁freque	-5927
▁gerald	-5928
▁grimpe	-5929
▁grippe	-5930
▁grosse	-5931
▁hotels	-5932
▁inonde	-5933
▁isoles	-5934
▁ivoire	-5935
▁jusque	-5936
▁libere	-5937
▁oceans	-5938
▁offrir	-5939
▁oppose	-5940
▁pistes	-5941
▁plante	-5942
▁plaque	-5943
▁prevoy	-5944
▁puisqu	-5945
▁quelle	-5946
▁recifs	-5947
▁rejoin	-5948
▁remont	-5949
▁robert	-5950
▁salles	-5951
▁secour	-5952
▁sentir	-5953
▁seules	-5954
▁signal	-5955
▁signes	-5956
▁sonore	-5957
▁souter	-5958
▁surven	-5959
▁survie	-5960
▁suspec	-5961
▁terror	-5962
▁valent	-5963
▁venant	-5964
▁videos	-5965
▁vienne	-5966
agnement	-5967
mination	-5968
▁abidjan	-5969
▁adapter	-5970
▁ajouter	-5971
▁associe	-5972
▁auteure	-5973
▁autorou	-5974
▁avancee	-5975
▁cameras	-5976
▁cellule	-5977
▁classee	-5978
▁college	-5979
▁compare	-5980
▁compose	-5981
▁consecu	-5982
▁couvrir	-5983
▁crucial	-5984
▁deborde	-5985
▁defaill	-5986
▁devenue	-5987
▁egalite	-5988
▁eleveur	-5989
▁emirats	-5990
▁encoura	-5991
▁epaisse	-5992
▁estimee	-5993
▁exhorte	-5994
▁facteur	-5995
▁faculte	-5996
▁fatigue	-5997
▁fissure	-5998
▁fondent	-5999
▁francis	-6000
▁frelons	-6001
▁glacier	-6002
▁helicop	-6003
▁impossi	-6004
▁inclure	-6005
▁londres	-6006
▁longues	-6007
▁missile	-6008
▁moindre	-6009
▁ouragan	-6010
▁paralle	-6011
▁pensons	-6012
▁philipp	-6013
▁piqures	-6014
▁pompier	-6015
▁quelles	-6016
▁recueil	-6017
▁reculer	-6018
▁reduite	-6019
▁refroid	-6020
▁relance	-6021
▁retards	-6022
▁revient	-6023
▁riviere	-6024
▁ruaridh	-6025
▁salomon	-6026
▁sanguin	-6027
▁servent	-6028
▁siberie	-6029
▁simples	-6030
▁suicide	-6031
▁surpris	-6032
▁tcheque	-6033
▁theorie	-6034
▁thierry	-6035
▁toucher	-6036
▁trouble	-6037
▁vegetar	-6038
▁vivants	-6039
▁volonte	-6040
anciation	-6041
▁annoncer	-6042
▁applique	-6043
▁auraient	-6044
▁aviation	-6045
▁bulletin	-6046
▁caraibes	-6047
▁certaine	-6048
▁consomme	-6049
▁demontre	-6050
▁denoncer	-6051
▁detectes	-6052
▁douzaine	-6053
▁echapper	-6054
▁episodes	-6055
▁estimait	-6056
▁evoquant	-6057
▁exponent	-6058
▁favorise	-6059
▁federale	-6060
▁femelles	-6061
▁figurent	-6062
▁hexagone	-6063
▁intervie	-6064
▁involont	-6065
▁justifie	-6066
▁metropol	-6067
▁militant	-6068
▁mutation	-6069
▁presents	-6070
▁principe	-6071
▁profiter	-6072
▁protegee	-6073
▁publiees	-6074
▁reaction	-6075
▁recourir	-6076
▁reduites	-6077
▁rivieres	-6078
▁rousseau	-6079
▁saoudite	-6080
▁semblent	-6081
▁souhaite	-6082
▁soutenir	-6083
▁souvenir	-6084
▁succombe	-6085
▁synthese	-6086
▁terrasse	-6087
▁utilisee	-6088
▁verifier	-6089
▁violents	-6090
allajokull	-6091
tomatiques	-6092
▁africaine	-6093
▁allemands	-6094
▁attendent	-6095
▁autorisee	-6096
▁batiments	-6097
▁cargaison	-6098
▁ceremonie	-6099
▁coalition	-6100
▁collectif	-6101
▁conserver	-6102
▁controler	-6103
▁demeurent	-6104
▁dirigeant	-6105
▁economies	-6106
▁elevation	-6107
▁elizabeth	-6108
▁exercices	-6109
▁extension	-6110
▁fournisse	-6111
▁guatemala	-6112
▁homologue	-6113
▁indiquant	-6114
▁indiquent	-6115
▁indispens	-6116
▁installes	-6117
▁institute	-6118
▁islandais	-6119
▁maintient	-6120
▁municipal	-6121
▁prolongee	-6122
▁prononcer	-6123
▁rassemble	-6124
▁reclament	-6125
▁recuperer	-6126
▁reintrodu	-6127
▁reservoir	-6128
▁resteront	-6129
▁retourner	-6130
▁retrouves	-6131
▁reykjavik	-6132
▁sensibles	-6133
▁syndicats	-6134
▁absolument	-6135
▁australien	-6136
▁barthelemy	-6137
▁battements	-6138
▁cardiaques	-6139
▁christophe	-6140
▁commencent	-6141
▁confrontes	-6142
▁depistages	-6143
▁deviennent	-6144
▁difficulte	-6145
▁estimation	-6146
▁eurodepute	-6147
▁expliquant	-6148
▁facilement	-6149
▁generation	-6150
▁gouverneur	-6151
▁importants	-6152
▁intervalle	-6153
▁judiciaire	-6154
▁logistique	-6155
▁neutralite	-6156
▁pleinement	-6157
▁presentent	-6158
▁presentiel	-6159
▁previsions	-6160
▁producteur	-6161
▁profondeur	-6162
▁proportion	-6163
▁retrouvent	-6164
▁rhinoceros	-6165
▁saturation	-6166
▁structures	-6167
▁symbolique	-6168
▁alternative	-6169
▁competences	-6170
▁declaration	-6171
▁derogations	-6172
▁discussions	-6173
▁engagements	-6174
▁frequemment	-6175
▁journaliste	-6176
▁maharashtra	-6177
▁massivement	-6178
▁necessitent	-6179
▁professeurs	-6180
▁professions	-6181
▁reinfection	-6182
▁travaillent	-6183
▁britanniques	-6184
▁contribution	-6185
▁democratique	-6186
▁deprogrammer	-6187
▁emblematique	-6188
▁enseignement	-6189
▁essentielles	-6190
▁industrielle	-6191
▁mediterranee	-6192
▁particuliers	-6193
▁technologies	-6194
▁travailleurs	-6195
▁distanciation	-6196
▁installations	-6197
▁intermediaire	-6198
▁organisateurs	-6199
▁preliminaires	-6200
▁renouvelables	-6201
▁vulcanologues	-6202
▁accompagnement	-6203
▁psychiatriques	-6204
▁supplementaire	-6205
▁traditionnelle	-6206
▁potentiellement	-6207
▁quotidiennement	-6208
bb	-6209
cy	-6210
dy	-6211
ix	-6212
jo	-6213
mn	-6214
ns	-6215
ape	-6216
ata	-6217
atr	-6218
cht	-6219
ees	-6220
eux	-6221
fie	-6222
fin	-6223
gla	-6224
ham	-6225
ick	-6226
ino	-6227
iro	-6228
ito	-6229
lam	-6230
lan	-6231
mbe	-6232
mid	-6233
ofi	-6234
ory	-6235
pez	-6236
ruz	-6237
rys	-6238
ska	-6239
tut	-6240
uce	-6241
vez	-6242
vit	-6243
▁ae	-6244
▁do	-6245
▁kh	-6246
ades	-6247
arch	-6248
breu	-6249
chon	-6250
cide	-6251
desh	-6252
eete	-6253
erte	-6254
esco	-6255
etus	-6256
gees	-6257
gres	-6258
heur	-6259
iges	-6260
jand	-6261
lene	-6262
lian	-6263
lige	-6264
mann	-6265
meur	-6266
obil	-6267
ocal	-6268
oine	-6269
peau	-6270
pore	-6271
pres	-6272
riss	-6273
tain	-6274
tens	-6275
thon	-6276
ulee	-6277
veau	-6278
vern	-6279
▁ait	-6280
▁ark	-6281
▁coi	-6282
▁coo	-6283
▁emo	-6284
▁fen	-6285
▁flu	-6286
▁gaz	-6287
▁gou	-6288
▁ill	-6289
▁jer	-6290
▁kat	-6291
▁lap	-6292
▁meg	-6293
▁mig	-6294
▁pis	-6295
▁rue	-6296
▁sej	-6297
▁sen	-6298
▁ses	-6299
▁sex	-6300
▁slo	-6301
▁syl	-6302
▁tax	-6303
▁vec	-6304
▁zel	-6305
acher	-6306
aigne	-6307
alter	-6308
ariat	-6309
bourg	-6310
cadre	-6311
chage	-6312
cules	-6313
davik	-6314
erine	-6315
fiant	-6316
ficie	-6317
genes	-6318
heses	-6319
ilant	-6320
iltre	-6321
isemb	-6322
ismes	-6323
lerie	-6324
leter	-6325
llana	-6326
nelle	-6327
ocrin	-6328
onger	-6329
ontro	-6330
ordee	-6331
ortun	-6332
ottes	-6333
ouvez	-6334
quise	-6335
rages	-6336
rance	-6337
riers	-6338
rolog	-6339
stone	-6340
tient	-6341
tueux	-6342
visee	-6343
▁addi	-6344
▁amor	-6345
▁anni	-6346
▁appe	-6347
▁atyp	-6348
▁azur	-6349
▁ball	-6350
▁bour	-6351
▁cnil	-6352
▁dame	-6353
▁deby	-6354
▁depl	-6355
▁durc	-6356
▁elig	-6357
▁elis	-6358
▁etro	-6359
▁eure	-6360
▁fini	-6361
▁flot	-6362
▁four	-6363
▁gavi	-6364
▁irri	-6365
▁joie	-6366
▁lass	-6367
▁mark	-6368
▁math	-6369
▁myop	-6370
▁noel	-6371
▁oeil	-6372
▁onus	-6373
▁opin	-6374
▁opti	-6375
▁paru	-6376
▁peau	-6377
▁perc	-6378
▁pilo	-6379
▁plaf	-6380
▁post	-6381
▁poub	-6382
▁remi	-6383
▁rouv	-6384
▁rugy	-6385
▁samu	-6386
▁sars	-6387
▁saxe	-6388
▁soix	-6389
▁tamb	-6390
▁usgs	-6391
▁vecu	-6392
▁viti	-6393
ailles	-6394
bidite	-6395
eekend	-6396
ensive	-6397
hesion	-6398
icides	-6399
iliter	-6400
illons	-6401
issait	-6402
itanie	-6403
jandro	-6404
mandie	-6405
ogenes	-6406
resses	-6407
tiquer	-6408
uisant	-6409
urance	-6410
vergne	-6411
▁abatt	-6412
▁accid	-6413
▁afflu	-6414
▁aigue	-6415
▁aille	-6416
▁arbre	-6417
▁artic	-6418
▁atter	-6419
▁avere	-6420
▁avoue	-6421
▁ayons	-6422
▁benev	-6423
▁bourg	-6424
▁brise	-6425
▁brune	-6426
▁bruno	-6427
▁canic	-6428
▁carre	-6429
▁convi	-6430
▁cosme	-6431
▁couts	-6432
▁crain	-6433
▁cruci	-6434
▁decro	-6435
▁devoi	-6436
▁echou	-6437
▁effor	-6438
▁enfer	-6439
▁enjeu	-6440
▁equit	-6441
▁essay	-6442
▁golfe	-6443
▁grece	-6444
▁huile	-6445
▁imper	-6446
▁infor	-6447
▁inser	-6448
▁juges	-6449
▁leger	-6450
▁leuce	-6451
▁limit	-6452
▁longs	-6453
▁lopez	-6454
▁louis	-6455
▁magas	-6456
▁march	-6457
▁maria	-6458
▁metre	-6459
▁modes	-6460
▁navig	-6461
▁offre	-6462
▁oncfs	-6463
▁ouvre	-6464
▁pales	-6465
▁pause	-6466
▁penet	-6467
▁pente	-6468
▁pires	-6469
▁plomb	-6470
▁posse	-6471
▁pouss	-6472
▁prete	-6473
▁puits	-6474
▁quatr	-6475
▁recre	-6476
▁recue	-6477
▁recur	-6478
▁renif	-6479
▁retab	-6480
▁reten	-6481
▁reuss	-6482
▁sarre	-6483
▁scene	-6484
▁sinis	-6485
▁sonne	-6486
▁tache	-6487
▁thord	-6488
▁tuees	-6489
▁varie	-6490
▁verre	-6491
▁volet	-6492
▁yello	-6493
ctement	-6494
ernance	-6495
latives	-6496
leterre	-6497
rations	-6498
▁abords	-6499
▁adoles	-6500
▁adopte	-6501
▁allant	-6502
▁annuel	-6503
▁antarc	-6504
▁appuie	-6505
▁arabes	-6506
▁auquel	-6507
▁aurons	-6508
▁bangla	-6509
▁berlin	-6510
▁blouse	-6511
▁bouche	-6512
▁cambri	-6513
▁candid	-6514
▁causee	-6515
▁certif	-6516
▁chirur	-6517
▁chutes	-6518
▁classi	-6519
▁combin	-6520
▁compro	-6521
▁consac	-6522
▁couche	-6523
▁couver	-6524
▁cyclis	-6525
▁decrue	-6526
▁dedies	-6527
▁depass	-6528
▁desser	-6529
▁dispos	-6530
▁ecarte	-6531
▁envole	-6532
▁etions	-6533
▁faille	-6534
▁felins	-6535
▁filles	-6536
▁filtre	-6537
▁finale	-6538
▁fleche	-6539
▁fourni	-6540
▁franch	-6541
▁future	-6542
▁gauche	-6543
▁hebreu	-6544
▁hivern	-6545
▁inedit	-6546
▁invest	-6547
▁isoler	-6548
▁issues	-6549
▁jaunes	-6550
▁jugent	-6551
▁larmes	-6552
▁madrid	-6553
▁odeurs	-6554
▁orange	-6555
▁pacaya	-6556
▁panama	-6557
▁periph	-6558
▁pierre	-6559
▁pouvez	-6560
▁prince	-6561
▁protes	-6562
▁quator	-6563
▁rattra	-6564
▁repart	-6565
▁requin	-6566
▁reveil	-6567
▁sanofi	-6568
▁soigne	-6569
▁sombre	-6570
▁soufre	-6571
▁statut	-6572
▁tendue	-6573
▁tentes	-6574
▁testee	-6575
▁triste	-6576
▁unesco	-6577
▁unicef	-6578
▁vaches	-6579
▁virale	-6580
▁affecte	-6581
▁animale	-6582
▁apprete	-6583
▁assiste	-6584
▁athenes	-6585
▁attirer	-6586
▁austral	-6587
▁avancer	-6588
▁battant	-6589
▁bonheur	-6590
▁branche	-6591
▁chantal	-6592
▁charges	-6593
▁clients	-6594
▁conclut	-6595
▁decidee	-6596
▁delegue	-6597
▁demarre	-6598
▁detruit	-6599
▁devenus	-6600
▁disparu	-6601
▁elevees	-6602
▁eloigne	-6603
▁empeche	-6604
▁engagee	-6605
▁fischer	-6606
▁fraisse	-6607
▁frappee	-6608
▁gouttes	-6609
▁grammes	-6610
▁gratuit	-6611
▁gregory	-6612
▁grenade	-6613
▁inciter	-6614
▁inferie	-6615
▁interet	-6616
▁ironise	-6617
▁legumes	-6618
▁loisirs	-6619
▁martele	-6620
▁maurice	-6621
▁meurent	-6622
▁microal	-6623
▁minimum	-6624
▁municip	-6625
▁musique	-6626
▁oublier	-6627
▁parking	-6628
▁parquet	-6629
▁patrice	-6630
▁patrick	-6631
▁personn	-6632
▁peuplee	-6633
▁portent	-6634
▁preoccu	-6635
▁profond	-6636
▁puisque	-6637
▁racines	-6638
▁rafales	-6639
▁redoute	-6640
▁referen	-6641
▁remonte	-6642
▁remplis	-6643
▁rendant	-6644
▁reparti	-6645
▁restant	-6646
▁retirer	-6647
▁revenus	-6648
▁roulant	-6649
▁rouvert	-6650
▁rupture	-6651
▁serieux	-6652
▁situees	-6653
▁soigner	-6654
▁sondage	-6655
▁tentent	-6656
▁termine	-6657
▁torrent	-6658
▁toxique	-6659
▁turquie	-6660
▁urbaine	-6661
▁voulons	-6662
▁voyager	-6663
quantaine	-6664
▁academie	-6665
▁accordee	-6666
▁adhesion	-6667
▁adoption	-6668
▁agissait	-6669
▁ajoutent	-6670
▁amateurs	-6671
▁apparait	-6672
▁apporter	-6673
▁argument	-6674
▁assurant	-6675
▁atteinte	-6676
▁autriche	-6677
▁blanquer	-6678
▁bulgarie	-6679
▁caracter	-6680
▁certific	-6681
▁champion	-6682
▁complete	-6683
▁composes	-6684
▁condamne	-6685
▁conforme	-6686
▁consiste	-6687
▁contacts	-6688
▁craindre	-6689
▁desastre	-6690
▁duchenne	-6691
▁echanges	-6692
▁empecher	-6693
▁endocrin	-6694
▁etendues	-6695
▁exercice	-6696
▁exploser	-6697
▁finlande	-6698
▁gendarme	-6699
▁gigantes	-6700
▁gorilles	-6701
▁handicap	-6702
▁humidite	-6703
▁identite	-6704
▁implique	-6705
▁infiltre	-6706
▁internau	-6707
▁interven	-6708
▁leopards	-6709
▁libertes	-6710
▁medicaux	-6711
▁mefiance	-6712
▁menagers	-6713
▁messages	-6714
▁minimale	-6715
▁modifier	-6716
▁mondiaux	-6717
▁opportun	-6718
▁orellana	-6719
▁palestin	-6720
▁pavillon	-6721
▁permette	-6722
▁policier	-6723
▁pollinis	-6724
▁prairies	-6725
▁prevenir	-6726
▁proteges	-6727
▁rarement	-6728
▁recentes	-6729
▁relation	-6730
▁reptiles	-6731
▁reserver	-6732
▁respecte	-6733
▁sonnette	-6734
▁stephane	-6735
▁strictes	-6736
▁surfaces	-6737
▁telethon	-6738
▁toulouse	-6739
▁tropical	-6740
▁voudrait	-6741
▁vraisemb	-6742
▁accidents	-6743
▁aeriennes	-6744
▁africains	-6745
▁alejandro	-6746
▁aquitaine	-6747
▁assurance	-6748
▁baigneurs	-6749
▁beneficie	-6750
▁candidats	-6751
▁cardiaque	-6752
▁concernee	-6753
▁conseille	-6754
▁constatee	-6755
▁contamine	-6756
▁contribue	-6757
▁critiquee	-6758
▁croissant	-6759
▁democrate	-6760
▁demontrer	-6761
▁deplorant	-6762
▁disparues	-6763
▁efficaces	-6764
▁eligibles	-6765
▁elisabeth	-6766
▁eradiquer	-6767
▁eventuels	-6768
▁faciliter	-6769
▁fernandez	-6770
▁floraison	-6771
▁glaciaire	-6772
▁grindavik	-6773
▁inhabitee	-6774
▁invasives	-6775
▁lassitude	-6776
▁maitriser	-6777
▁mecanique	-6778
▁mecanisme	-6779
▁myopathie	-6780
▁observent	-6781
▁organiser	-6782
▁participe	-6783
▁passagers	-6784
▁pesticide	-6785
▁pouvaient	-6786
▁prescrire	-6787
▁prevision	-6788
▁provinces	-6789
▁quantites	-6790
▁quartiers	-6791
▁quatrieme	-6792
▁quinzaine	-6793
▁reflechir	-6794
▁scenarios	-6795
▁sebastien	-6796
▁solutions	-6797
▁surmonter	-6798
▁trimestre	-6799
▁tromperie	-6800
▁vaisseaux	-6801
▁accueillir	-6802
▁admissions	-6803
▁angleterre	-6804
▁annulation	-6805
▁compagnies	-6806
▁consideres	-6807
▁decouverte	-6808
▁enseignant	-6809
▁expliquent	-6810
▁forestiers	-6811
▁frequentes	-6812
▁hypotheses	-6813
▁impossible	-6814
▁inhabituel	-6815
▁martinique	-6816
▁passeports	-6817
▁predateurs	-6818
▁presentant	-6819
▁produisent	-6820
▁programmes	-6821
▁recompense	-6822
▁regionales	-6823
▁resistants	-6824
▁secondaire	-6825
▁similaires	-6826
▁soulignent	-6827
▁specialise	-6828
▁surveiller	-6829
▁terroriste	-6830
▁thordarson	-6831
▁vulnerable	-6832
▁ambassadeur	-6833
▁appartenant	-6834
▁communiques	-6835
▁conclusions	-6836
▁connaissent	-6837
▁constituent	-6838
▁defavorises	-6839
▁destination	-6840
▁electriques	-6841
▁energetique	-6842
▁enregistree	-6843
▁eurodeputes	-6844
▁europeennes	-6845
▁habitations	-6846
▁humanitaire	-6847
▁indicateurs	-6848
▁observation	-6849
▁pakistanais	-6850
▁philippines	-6851
▁precautions	-6852
▁publication	-6853
▁quotidienne	-6854
▁restriction	-6855
▁signataires	-6856
▁soixantaine	-6857
▁specialisee	-6858
▁spectateurs	-6859
▁volcaniques	-6860
▁antigeniques	-6861
▁cinquantaine	-6862
▁durcissement	-6863
▁generalistes	-6864
▁hospitaliere	-6865
▁hospitaliers	-6866
▁impregnation	-6867
▁independants	-6868
▁insuffisance	-6869
▁legislatives	-6870
▁obligatoires	-6871
▁observatoire	-6872
▁photographie	-6873
▁representant	-6874
▁satisfaction	-6875
▁stratosphere	-6876
▁atmospherique	-6877
▁complications	-6878
▁connaissances	-6879
▁consultations	-6880
▁diagnostiques	-6881
▁exponentielle	-6882
▁hebdomadaires	-6883
▁individuelles	-6884
▁neurologiques	-6885
▁parlementaire	-6886
▁participation	-6887
▁professionnel	-6888
▁rassemblement	-6889
▁torrentielles	-6890
▁eventuellement	-6891
▁investigations	-6892
▁presidentielle	-6893
▁reglementaires	-6894
▁reglementation	-6895
▁vieillissement	-6896
▁hospitalisation	-6897
▁sensibilisation	-6898
dh	-6899
ji	-6900
pa	-6901
ua	-6902
vu	-6903
yl	-6904
zy	-6905
▁q	-6906
aid	-6907
aie	-6908
ast	-6909
cel	-6910
cop	-6911
cra	-6912
dur	-6913
eck	-6914
elv	-6915
flu	-6916
gel	-6917
guy	-6918
ity	-6919
jik	-6920
lat	-6921
ley	-6922
lon	-6923
los	-6924
mit	-6925
nav	-6926
nic	-6927
nom	-6928
ono	-6929
pos	-6930
qui	-6931
sia	-6932
tas	-6933
uti	-6934
uvi	-6935
yan	-6936
zet	-6937
▁cr	-6938
▁gy	-6939
▁ka	-6940
▁ot	-6941
▁ov	-6942
▁py	-6943
▁xi	-6944
▁yu	-6945
allo	-6946
arat	-6947
arer	-6948
aska	-6949
bler	-6950
cage	-6951
cede	-6952
cool	-6953
dans	-6954
dier	-6955
elly	-6956
erts	-6957
esem	-6958
gien	-6959
gole	-6960
grer	-6961
grie	-6962
icit	-6963
iler	-6964
iran	-6965
itre	-6966
ives	-6967
judi	-6968
kins	-6969
luge	-6970
mond	-6971
mper	-6972
ocie	-6973
ocry	-6974
ogne	-6975
olie	-6976
olis	-6977
oria	-6978
orld	-6979
orps	-6980
orta	-6981
ovas	-6982
pent	-6983
pron	-6984
quis	-6985
rans	-6986
rtil	-6987
seur	-6988
taxe	-6989
thme	-6990
tume	-6991
uent	-6992
uhan	-6993
ulot	-6994
umer	-6995
uree	-6996
vard	-6997
vons	-6998
▁ard	-6999
▁aub	-7000
▁bet	-7001
▁bob	-7002
▁bov	-7003
▁bro	-7004
▁cam	-7005
▁cdc	-7006
▁cne	-7007
▁dat	-7008
▁eme	-7009
▁fal	-7010
▁far	-7011
▁ham	-7012
▁hen	-7013
▁him	-7014
▁jur	-7015
▁kir	-7016
▁mis	-7017
▁myg	-7018
▁nar	-7019
▁ner	-7020
▁obs	-7021
▁pcr	-7022
▁pet	-7023
▁phy	-7024
▁rad	-7025
▁rak	-7026
▁sed	-7027
▁six	-7028
▁spa	-7029
▁stu	-7030
▁tac	-7031
▁tai	-7032
▁tuy	-7033
▁vih	-7034
andes	-7035
atres	-7036
avres	-7037
chons	-7038
ctive	-7039
cture	-7040
diret	-7041
faits	-7042
gieux	-7043
gnade	-7044
grais	-7045
guyen	-7046
hault	-7047
ignon	-7048
ilets	-7049
inera	-7050
ingou	-7051
irait	-7052
isses	-7053
ister	-7054
kland	-7055
laire	-7056
lasgo	-7057
lises	-7058
livie	-7059
lotte	-7060
manin	-7061
merie	-7062
misph	-7063
moine	-7064
naire	-7065
oline	-7066
ology	-7067
onyme	-7068
osmie	-7069
quier	-7070
rache	-7071
rente	-7072
reuve	-7073
ronde	-7074
saire	-7075
tance	-7076
techn	-7077
terie	-7078
urite	-7079
venie	-7080
ville	-7081
▁admi	-7082
▁allo	-7083
▁anth	-7084
▁aube	-7085
▁bere	-7086
▁bons	-7087
▁brux	-7088
▁caus	-7089
▁chel	-7090
▁cnrs	-7091
▁crit	-7092
▁cuis	-7093
▁deca	-7094
▁deli	-7095
▁dent	-7096
▁depe	-7097
▁dese	-7098
▁devo	-7099
▁dieu	-7100
▁eelv	-7101
▁ench	-7102
▁enra	-7103
▁fete	-7104
▁flan	-7105
▁flux	-7106
▁gere	-7107
▁grad	-7108
▁grie	-7109
▁hate	-7110
▁herb	-7111
▁hier	-7112
▁horm	-7113
▁imag	-7114
▁inac	-7115
▁inau	-7116
▁inpe	-7117
▁insp	-7118
▁irma	-7119
▁isni	-7120
▁jans	-7121
▁lion	-7122
▁lobb	-7123
▁luxe	-7124
▁menu	-7125
▁mine	-7126
▁mini	-7127
▁nans	-7128
▁noms	-7129
▁paie	-7130
▁pare	-7131
▁paye	-7132
▁pedi	-7133
▁perd	-7134
▁peux	-7135
▁rang	-7136
▁regu	-7137
▁rene	-7138
▁reti	-7139
▁roma	-7140
▁roux	-7141
▁sabo	-7142
▁sape	-7143
▁sete	-7144
▁sing	-7145
▁stan	-7146
▁subs	-7147
▁tene	-7148
▁thun	-7149
▁tirs	-7150
▁vies	-7151
▁vins	-7152
▁vote	-7153
bation	-7154
desira	-7155
dromes	-7156
genres	-7157
griete	-7158
icales	-7159
illant	-7160
illiam	-7161
illonn	-7162
lifier	-7163
llites	-7164
maient	-7165
nickel	-7166
ombres	-7167
onnees	-7168
otique	-7169
ousses	-7170
perent	-7171
pronil	-7172
rendra	-7173
ulente	-7174
ustige	-7175
valdur	-7176
vateur	-7177
▁abdel	-7178
▁abond	-7179
▁accap	-7180
▁alain	-7181
▁ambul	-7182
▁andre	-7183
▁anoma	-7184
▁anton	-7185
▁aspec	-7186
▁asymp	-7187
▁balay	-7188
▁basee	-7189
▁belle	-7190
▁boire	-7191
▁brest	-7192
▁carte	-7193
▁celeb	-7194
▁centi	-7195
▁colon	-7196
▁comte	-7197
▁corne	-7198
▁coron	-7199
▁creee	-7200
▁crete	-7201
▁croix	-7202
▁crues	-7203
▁dates	-7204
▁deblo	-7205
▁decon	-7206
▁dedie	-7207
▁dense	-7208
▁desag	-7209
▁dever	-7210
▁douze	-7211
▁educa	-7212
▁egard	-7213
▁elezi	-7214
▁empru	-7215
▁epuis	-7216
▁estiv	-7217
▁faite	-7218
▁fasse	-7219
▁fenet	-7220
▁frais	-7221
▁futur	-7222
▁gerer	-7223
▁gerin	-7224
▁geste	-7225
▁gomes	-7226
▁greta	-7227
▁guill	-7228
▁herbe	-7229
▁hulot	-7230
▁infra	-7231
▁innov	-7232
▁inrae	-7233
▁insta	-7234
▁intit	-7235
▁jesem	-7236
▁juger	-7237
▁kelly	-7238
▁label	-7239
▁larib	-7240
▁legal	-7241
▁libye	-7242
▁maman	-7243
▁mange	-7244
▁maree	-7245
▁menac	-7246
▁merck	-7247
▁miner	-7248
▁moral	-7249
▁morce	-7250
▁musee	-7251
▁niran	-7252
▁nuits	-7253
▁odeur	-7254
▁olymp	-7255
▁quels	-7256
▁queue	-7257
▁ramon	-7258
▁raoni	-7259
▁reaff	-7260
▁recif	-7261
▁recul	-7262
▁redou	-7263
▁remer	-7264
▁remet	-7265
▁remis	-7266
▁repan	-7267
▁revel	-7268
▁rival	-7269
▁ronge	-7270
▁rotie	-7271
▁saper	-7272
▁savez	-7273
▁scott	-7274
▁seize	-7275
▁sinon	-7276
▁smith	-7277
▁souci	-7278
▁south	-7279
▁stein	-7280
▁toits	-7281
▁tonne	-7282
▁trang	-7283
▁urban	-7284
▁usine	-7285
▁verse	-7286
▁vetus	-7287
▁vieux	-7288
▁vinci	-7289
▁voies	-7290
cations	-7291
diretti	-7292
inaires	-7293
issance	-7294
jiklian	-7295
matisme	-7296
oisiere	-7297
ortable	-7298
ouement	-7299
rateurs	-7300
viendra	-7301
visoire	-7302
▁adapte	-7303
▁alaska	-7304
▁alcool	-7305
▁allerg	-7306
▁angois	-7307
▁benoit	-7308
▁blanch	-7309
▁boites	-7310
▁bovins	-7311
▁budget	-7312
▁canfin	-7313
▁cendre	-7314
▁chenes	-7315
▁cloche	-7316
▁concur	-7317
▁connue	-7318
▁connus	-7319
▁corail	-7320
▁coulee	-7321
▁craint	-7322
▁crimin	-7323
▁decede	-7324
▁declar	-7325
▁decomp	-7326
▁detail	-7327
▁diluvi	-7328
▁dinder	-7329
▁doutes	-7330
▁ecoute	-7331
▁emploi	-7332
▁envers	-7333
▁epouse	-7334
▁erreur	-7335
▁evacue	-7336
▁evolue	-7337
▁famine	-7338
▁fiable	-7339
▁flores	-7340
▁flotte	-7341
▁former	-7342
▁foulee	-7343
▁freder	-7344
▁fusion	-7345
▁gagner	-7346
▁garant	-7347
▁garcon	-7348
▁gestes	-7349
▁gilets	-7350
▁gilles	-7351
▁glaces	-7352
▁glasgo	-7353
▁idriss	-7354
▁inserm	-7355
▁instar	-7356
▁jerome	-7357
▁juridi	-7358
▁leader	-7359
▁livrer	-7360
▁manaus	-7361
▁mortel	-7362
▁musees	-7363
▁myrtil	-7364
▁nguyen	-7365
▁notant	-7366
▁notent	-7367
▁option	-7368
▁passes	-7369
▁pelage	-7370
▁pertes	-7371
▁pieces	-7372
▁pingou	-7373
▁placee	-7374
▁plants	-7375
▁pollue	-7376
▁portes	-7377
▁portug	-7378
▁privee	-7379
▁profit	-7380
▁quarts	-7381
▁reagir	-7382
▁rebond	-7383
▁recues	-7384
▁reelle	-7385
▁reeval	-7386
▁rejoui	-7387
▁relati	-7388
▁renaud	-7389
▁renvoy	-7390
▁retomb	-7391
▁reunis	-7392
▁revoir	-7393
▁rivage	-7394
▁ruches	-7395
▁saisir	-7396
▁severe	-7397
▁souche	-7398
▁sports	-7399
▁stable	-7400
▁stocks	-7401
▁surnom	-7402
▁syrien	-7403
▁temoin	-7404
▁tigres	-7405
▁traces	-7406
▁trajec	-7407
▁trajet	-7408
▁ventes	-7409
▁vigner	-7410
▁vignes	-7411
▁visage	-7412
▁voient	-7413
cription	-7414
erations	-7415
misphere	-7416
ocrylene	-7417
terelles	-7418
terielle	-7419
versaire	-7420
▁adolesc	-7421
▁adresse	-7422
▁aeriens	-7423
▁anciens	-7424
▁antoine	-7425
▁anxieux	-7426
▁appeles	-7427
▁assises	-7428
▁babouin	-7429
▁baisses	-7430
▁bolivie	-7431
▁bureaux	-7432
▁chacune	-7433
▁chasses	-7434
▁chaudes	-7435
▁circuit	-7436
▁constru	-7437
▁cotiere	-7438
▁couleur	-7439
▁decider	-7440
▁deficit	-7441
▁deposer	-7442
▁detecte	-7443
▁diffuse	-7444
▁disting	-7445
▁donnent	-7446
▁dossier	-7447
▁douceur	-7448
▁ecocide	-7449
▁ecotaxe	-7450
▁ecoulee	-7451
▁encadre	-7452
▁engrais	-7453
▁envoyer	-7454
▁epreuve	-7455
▁equator	-7456
▁espoirs	-7457
▁essaims	-7458
▁evoluer	-7459
▁exposee	-7460
▁federal	-7461
▁flacons	-7462
▁forment	-7463
▁fournit	-7464
▁fragile	-7465
▁fustige	-7466
▁garcons	-7467
▁gelding	-7468
▁gravite	-7469
▁harvard	-7470
▁hospice	-7471
▁identif	-7472
▁impacts	-7473
▁integra	-7474
▁intubes	-7475
▁invites	-7476
▁jacques	-7477
▁janeiro	-7478
▁janssen	-7479
▁lenteur	-7480
▁limitee	-7481
▁livrees	-7482
▁marquee	-7483
▁marques	-7484
▁menacee	-7485
▁michael	-7486
▁modeles	-7487
▁montrer	-7488
▁moutons	-7489
▁negocie	-7490
▁nigeria	-7491
▁oceanie	-7492
▁opinion	-7493
▁pearson	-7494
▁plaisir	-7495
▁portees	-7496
▁potable	-7497
▁poussee	-7498
▁precoce	-7499
▁prejudi	-7500
▁prenant	-7501
▁privees	-7502
▁profite	-7503
▁prudent	-7504
▁reflech	-7505
▁reflete	-7506
▁regarde	-7507
▁remplac	-7508
▁rendues	-7509
▁rentrer	-7510
▁residus	-7511
▁restait	-7512
▁risquer	-7513
▁seances	-7514
▁seismes	-7515
▁society	-7516
▁solaire	-7517
▁soulage	-7518
▁soutenu	-7519
▁suivant	-7520
▁tableau	-7521
▁testees	-7522
▁theatre	-7523
▁tourner	-7524
▁tournes	-7525
▁transpa	-7526
▁vaccino	-7527
▁valeurs	-7528
▁venezue	-7529
▁virolog	-7530
▁viticul	-7531
▁voulais	-7532
▁voulait	-7533
▁zelande	-7534
▁absorber	-7535
▁accepter	-7536
▁aggravee	-7537
▁annoncee	-7538
▁argentin	-7539
▁arrivant	-7540
▁articles	-7541
▁associee	-7542
▁associes	-7543
▁assurent	-7544
▁attaquer	-7545
▁attentat	-7546
▁attribue	-7547
▁auckland	-7548
▁baignade	-7549
▁baleines	-7550
▁banquise	-7551
▁batiment	-7552
▁benefice	-7553
▁biologie	-7554
▁cadavres	-7555
▁chantier	-7556
▁chimique	-7557
▁circuler	-7558
▁conclure	-7559
▁conduite	-7560
▁conjoint	-7561
▁consigne	-7562
▁conteste	-7563
▁contrats	-7564
▁cooperer	-7565
▁cruciale	-7566
▁cyclable	-7567
▁darmanin	-7568
▁deborder	-7569
▁defiance	-7570
▁demarche	-7571
▁denombre	-7572
▁deposees	-7573
▁devenues	-7574
▁devrions	-7575
▁dilution	-7576
▁diverses	-7577
▁ecossais	-7578
▁elephant	-7579
▁enceinte	-7580
▁equipage	-7581
▁esperons	-7582
▁examiner	-7583
▁extraord	-7584
▁fatigues	-7585
▁fipronil	-7586
▁flahault	-7587
▁franchie	-7588
▁gratuits	-7589
▁guerison	-7590
▁hauteurs	-7591
▁illegale	-7592
▁importes	-7593
▁imposees	-7594
▁incontro	-7595
▁indesira	-7596
▁invasion	-7597
▁irremedi	-7598
▁laurence	-7599
▁logement	-7600
▁machines	-7601
▁monument	-7602
▁normales	-7603
▁observer	-7604
▁occupent	-7605
▁ouvriers	-7606
▁parcours	-7607
▁philippe	-7608
▁polaires	-7609
▁positive	-7610
▁pouvoirs	-7611
▁precieux	-7612
▁prepares	-7613
▁pressent	-7614
▁privileg	-7615
▁qualifie	-7616
▁rapports	-7617
▁reacteur	-7618
▁realiser	-7619
▁reconver	-7620
▁recouver	-7621
▁recupere	-7622
▁refusent	-7623
▁relevent	-7624
▁remonter	-7625
▁replique	-7626
▁research	-7627
▁semblait	-7628
▁sexuelle	-7629
▁signales	-7630
▁slovenie	-7631
▁societes	-7632
▁soutenue	-7633
▁suedoise	-7634
▁surprise	-7635
▁taxation	-7636
▁tchadien	-7637
▁telegram	-7638
▁tempetes	-7639
▁terrible	-7640
▁thunberg	-7641
▁traitant	-7642
▁turquois	-7643
▁vehicule	-7644
▁violente	-7645
▁visibles	-7646
▁vraquier	-7647
▁affectees	-7648
▁affirmant	-7649
▁anomalies	-7650
▁anticorps	-7651
▁appareils	-7652
▁apprendre	-7653
▁atypiques	-7654
▁barrieres	-7655
▁bruxelles	-7656
▁capitales	-7657
▁caractere	-7658
▁cardiovas	-7659
▁catherine	-7660
▁charlotte	-7661
▁chimiques	-7662
▁chinoises	-7663
▁chirurgie	-7664
▁combattre	-7665
▁comprends	-7666
▁compromis	-7667
▁connaitre	-7668
▁constater	-7669
▁construit	-7670
▁contagion	-7671
▁cyclistes	-7672
▁declarent	-7673
▁deviendra	-7674
▁directive	-7675
▁documents	-7676
▁echappent	-7677
▁effectuer	-7678
▁effectues	-7679
▁emissaire	-7680
▁endeuille	-7681
▁epidemies	-7682
▁esperance	-7683
▁fabriques	-7684
▁favorable	-7685
▁favoriser	-7686
▁gendarmes	-7687
▁guillaume	-7688
▁interesse	-7689
▁introduit	-7690
▁invoquant	-7691
▁israelien	-7692
▁limitroph	-7693
▁mauricien	-7694
▁molecules	-7695
▁moustique	-7696
▁multiples	-7697
▁multiplie	-7698
▁negatives	-7699
▁nocturnes	-7700
▁normandie	-7701
▁nornickel	-7702
▁observees	-7703
▁offensive	-7704
▁operateur	-7705
▁parcelles	-7706
▁patientes	-7707
▁plastique	-7708
▁potentiel	-7709
▁presenter	-7710
▁primaires	-7711
▁promesses	-7712
▁proposent	-7713
▁provenant	-7714
▁publicite	-7715
▁puissants	-7716
▁redevenue	-7717
▁rejoindre	-7718
▁religieux	-7719
▁retrouvee	-7720
▁riverains	-7721
▁sauvetage	-7722
▁secousses	-7723
▁soignante	-7724
▁telephone	-7725
▁tendances	-7726
▁utilisent	-7727
▁vergriete	-7728
▁apparaitre	-7729
▁bangladesh	-7730
▁bouteilles	-7731
▁campagnols	-7732
▁chirurgien	-7733
▁chroniques	-7734
▁coldiretti	-7735
▁comparable	-7736
▁constituer	-7737
▁dangereuse	-7738
▁decouverts	-7739
▁developpes	-7740
▁difference	-7741
▁dramatique	-7742
▁drastiques	-7743
▁etrangeres	-7744
▁explosions	-7745
▁fabriquees	-7746
▁financiere	-7747
▁hemisphere	-7748
▁incroyable	-7749
▁interieurs	-7750
▁intervient	-7751
▁israeliens	-7752
▁manifester	-7753
▁multiplier	-7754
▁patrimoine	-7755
▁plastiques	-7756
▁polluantes	-7757
▁precieuses	-7758
▁progresser	-7759
▁provisoire	-7760
▁radiations	-7761
▁respectant	-7762
▁revolution	-7763
▁satellites	-7764
▁solidarite	-7765
▁steinmeier	-7766
▁thorvaldur	-7767
▁transforme	-7768
▁variations	-7769
▁vegetarien	-7770
▁amazonienne	-7771
▁antarctique	-7772
▁australiens	-7773
▁berejiklian	-7774
▁cancerogene	-7775
▁centimetres	-7776
▁changements	-7777
▁commerciaux	-7778
▁comorbidite	-7779
▁concentrent	-7780
▁consecutive	-7781
▁contiennent	-7782
▁cosmetiques	-7783
▁dangereuses	-7784
▁depassement	-7785
▁diluviennes	-7786
▁dispositifs	-7787
▁exportation	-7788
▁franciliens	-7789
▁gouvernance	-7790
▁helicoptere	-7791
▁instruction	-7792
▁internautes	-7793
▁legislation	-7794
▁mediterrane	-7795
▁octocrylene	-7796
▁participent	-7797
▁professeure	-7798
▁proposition	-7799
▁psychologue	-7800
▁realisation	-7801
▁reconnaitre	-7802
▁sauterelles	-7803
▁statistique	-7804
▁submersible	-7805
▁trajectoire	-7806
▁transgenres	-7807
▁transmettre	-7808
▁universites	-7809
▁anniversaire	-7810
▁apparaissent	-7811
▁australienne	-7812
▁chancellerie	-7813
▁controversee	-7814
▁echantillons	-7815
▁efficacement	-7816
▁enregistrant	-7817
▁enregistrees	-7818
▁enthousiasme	-7819
▁explications	-7820
▁immunisation	-7821
▁lariboisiere	-7822
▁legalisation	-7823
▁municipalite	-7824
▁pratiquement	-7825
▁presidentiel	-7826
▁reproduction	-7827
▁effectivement	-7828
▁epidemiologie	-7829
▁exploitations	-7830
▁insuffisantes	-7831
▁interventions	-7832
▁involontaires	-7833
▁partiellement	-7834
▁perturbateurs	-7835
▁significative	-7836
▁stationnement	-7837
▁therapeutique	-7838
▁metropolitaine	-7839
▁multiplication	-7840
▁reconnaissance	-7841
▁responsabilite	-7842
▁temporairement	-7843
▁arrondissements	-7844
▁impressionnants	-7845
▁majoritairement	-7846
▁professionnelle	-7847
▁traditionnelles	-7848
ao	-7849
ft	-7850
hl	-7851
ip	-7852
pl	-7853
uc	-7854
yr	-7855
ahe	-7856
arb	-7857
arr	-7858
bis	-7859
bli	-7860
cha	-7861
cia	-7862
dum	-7863
eet	-7864
erb	-7865
eum	-7866
fas	-7867
gar	-7868
hai	-7869
has	-7870
hel	-7871
hra	-7872
ial	-7873
ias	-7874
ido	-7875
iie	-7876
ika	-7877
ink	-7878
isj	-7879
itr	-7880
jal	-7881
ket	-7882
kyo	-7883
mbo	-7884
nis	-7885
niv	-7886
off	-7887
oie	-7888
oja	-7889
ovo	-7890
pet	-7891
pin	-7892
pri	-7893
rel	-7894
roi	-7895
sin	-7896
xer	-7897
zar	-7898
▁ib	-7899
▁ji	-7900
▁rt	-7901
▁zh	-7902
adal	-7903
adap	-7904
adis	-7905
agog	-7906
ague	-7907
aheb	-7908
aler	-7909
alle	-7910
alog	-7911
anco	-7912
anes	-7913
anmo	-7914
ardo	-7915
aude	-7916
azar	-7917
ball	-7918
cant	-7919
chel	-7920
chez	-7921
duro	-7922
elli	-7923
eloi	-7924
elot	-7925
ffer	-7926
gale	-7927
ghai	-7928
iant	-7929
ilir	-7930
ilsk	-7931
inos	-7932
itoy	-7933
leil	-7934
lets	-7935
ling	-7936
lock	-7937
loux	-7938
lyne	-7939
masi	-7940
mens	-7941
meub	-7942
mide	-7943
mili	-7944
oble	-7945
oley	-7946
omas	-7947
omin	-7948
onix	-7949
opou	-7950
orge	-7951
orti	-7952
osse	-7953
otan	-7954
otes	-7955
othe	-7956
oula	-7957
oung	-7958
ovac	-7959
psos	-7960
sage	-7961
sign	-7962
tayo	-7963
tera	-7964
tile	-7965
tils	-7966
tins	-7967
tons	-7968
ubri	-7969
udes	-7970
uiss	-7971
yane	-7972
ysis	-7973
▁abd	-7974
▁arg	-7975
▁ate	-7976
▁cet	-7977
▁coc	-7978
▁dai	-7979
▁die	-7980
▁dos	-7981
▁epr	-7982
▁ero	-7983
▁evo	-7984
▁fda	-7985
▁ghz	-7986
▁hab	-7987
▁heg	-7988
▁kap	-7989
▁lfi	-7990
▁lic	-7991
▁lie	-7992
▁luc	-7993
▁nap	-7994
▁nat	-7995
▁occ	-7996
▁ose	-7997
▁oui	-7998
▁plu	-7999
▁pom	-8000
▁ros	-8001
▁run	-8002
▁scr	-8003
▁sem	-8004
▁tab	-8005
▁uns	-8006
▁var	-8007
▁ves	-8008
▁zag	-8009
aguay	-8010
alena	-8011
alski	-8012
anais	-8013
arack	-8014
argie	-8015
ature	-8016
deces	-8017
dures	-8018
enser	-8019
erant	-8020
house	-8021
idodo	-8022
ierie	-8023
isera	-8024
islas	-8025
itere	-8026
lante	-8027
later	-8028
lence	-8029
madan	-8030
mager	-8031
manie	-8032
mates	-8033
metre	-8034
misme	-8035
naval	-8036
ocruz	-8037
oient	-8038
onges	-8039
onnee	-8040
orian	-8041
other	-8042
oudre	-8043
ouees	-8044
ousin	-8045
outch	-8046
peaux	-8047
peres	-8048
poste	-8049
print	-8050
quera	-8051
riger	-8052
rimin	-8053
rison	-8054
rites	-8055
tants	-8056
trees	-8057
ulant	-8058
voque	-8059
ysici	-8060
▁adri	-8061
▁agee	-8062
▁alar	-8063
▁asia	-8064
▁atti	-8065
▁aure	-8066
▁bach	-8067
▁beyr	-8068
▁bous	-8069
▁bret	-8070
▁bruy	-8071
▁cass	-8072
▁cepi	-8073
▁cham	-8074
▁chyp	-8075
▁cisj	-8076
▁clar	-8077
▁coqu	-8078
▁coul	-8079
▁couv	-8080
▁croc	-8081
▁crue	-8082
▁cuba	-8083
▁defi	-8084
▁dome	-8085
▁dote	-8086
▁dues	-8087
▁echo	-8088
▁ecol	-8089
▁ecri	-8090
▁etes	-8091
▁evap	-8092
▁evit	-8093
▁faux	-8094
▁ficr	-8095
▁fier	-8096
▁film	-8097
▁fine	-8098
▁foin	-8099
▁gras	-8100
▁gris	-8101
▁harm	-8102
▁heur	-8103
▁ilri	-8104
▁inex	-8105
▁info	-8106
▁inge	-8107
▁insv	-8108
▁isab	-8109
▁isla	-8110
▁jagu	-8111
▁joel	-8112
▁joko	-8113
▁jume	-8114
▁lamb	-8115
▁lett	-8116
▁leve	-8117
▁line	-8118
▁lots	-8119
▁loue	-8120
▁marc	-8121
▁minu	-8122
▁miss	-8123
▁nees	-8124
▁nidi	-8125
▁obse	-8126
▁offi	-8127
▁pais	-8128
▁pann	-8129
▁paul	-8130
▁plat	-8131
▁poly	-8132
▁ponc	-8133
▁pond	-8134
▁pyre	-8135
▁rand	-8136
▁ravi	-8137
▁recy	-8138
▁reef	-8139
▁reno	-8140
▁rich	-8141
▁rive	-8142
▁secs	-8143
▁semi	-8144
▁seni	-8145
▁sism	-8146
▁stim	-8147
▁suit	-8148
▁suiv	-8149
▁unaf	-8150
▁unif	-8151
▁vais	-8152
▁vape	-8153
▁vend	-8154
▁vien	-8155
▁vrac	-8156
abenes	-8157
adalur	-8158
aliere	-8159
alises	-8160
anques	-8161
ardeau	-8162
cartes	-8163
cevoir	-8164
cheurs	-8165
forman	-8166
golene	-8167
ieures	-8168
illais	-8169
itants	-8170
lision	-8171
mbourg	-8172
mement	-8173
ometri	-8174
oncent	-8175
onique	-8176
ortait	-8177
ortant	-8178
ortent	-8179
osants	-8180
oureux	-8181
outent	-8182
ouvoir	-8183
quants	-8184
rables	-8185
reable	-8186
riront	-8187
sbourg	-8188
sonian	-8189
tances	-8190
tantes	-8191
tifici	-8192
trices	-8193
▁accou	-8194
▁achat	-8195
▁agite	-8196
▁alent	-8197
▁allez	-8198
▁anssi	-8199
▁argue	-8200
▁assie	-8201
▁autop	-8202
▁avent	-8203
▁bande	-8204
▁beaux	-8205
▁borne	-8206
▁botan	-8207
▁cafes	-8208
▁capte	-8209
▁casse	-8210
▁chale	-8211
▁chate	-8212
▁chrys	-8213
▁citer	-8214
▁coque	-8215
▁cyber	-8216
▁damas	-8217
▁decol	-8218
▁decri	-8219
▁delit	-8220
▁delph	-8221
▁demis	-8222
▁denys	-8223
▁dereg	-8224
▁detru	-8225
▁deuil	-8226
▁digne	-8227
▁discu	-8228
▁disse	-8229
▁dites	-8230
▁drame	-8231
▁echec	-8232
▁ecouv	-8233
▁ecran	-8234
▁ecras	-8235
▁effra	-8236
▁endri	-8237
▁entom	-8238
▁epais	-8239
▁escro	-8240
▁exclu	-8241
▁fallu	-8242
▁fauci	-8243
▁fetes	-8244
▁final	-8245
▁finis	-8246
▁fixes	-8247
▁flash	-8248
▁foule	-8249
▁funer	-8250
▁gorge	-8251
▁guide	-8252
▁harce	-8253
▁himal	-8254
▁honne	-8255
▁hyper	-8256
▁idees	-8257
▁illus	-8258
▁impro	-8259
▁inaug	-8260
▁inspe	-8261
▁insur	-8262
▁ipsos	-8263
▁isole	-8264
▁jihad	-8265
▁kilos	-8266
▁koren	-8267
▁longe	-8268
▁lycee	-8269
▁males	-8270
▁manne	-8271
▁mario	-8272
▁maroc	-8273
▁match	-8274
▁menes	-8275
▁merci	-8276
▁miser	-8277
▁modem	-8278
▁morin	-8279
▁musul	-8280
▁nefas	-8281
▁nuage	-8282
▁obten	-8283
▁panne	-8284
▁paras	-8285
▁parma	-8286
▁payer	-8287
▁piege	-8288
▁poser	-8289
▁poses	-8290
▁promo	-8291
▁rakov	-8292
▁reais	-8293
▁redev	-8294
▁refer	-8295
▁regne	-8296
▁repit	-8297
▁repro	-8298
▁resse	-8299
▁reuni	-8300
▁rodri	-8301
▁sacri	-8302
▁sahel	-8303
▁saisi	-8304
▁santa	-8305
▁serge	-8306
▁siege	-8307
▁sitot	-8308
▁soeur	-8309
▁sonde	-8310
▁stand	-8311
▁subit	-8312
▁tabou	-8313
▁talib	-8314
▁tapis	-8315
▁tarde	-8316
▁these	-8317
▁tiend	-8318
▁tirer	-8319
▁tokyo	-8320
▁trace	-8321
▁trafi	-8322
▁tronc	-8323
▁tuyau	-8324
▁vante	-8325
▁vendu	-8326
▁young	-8327
animite	-8328
anmoins	-8329
astique	-8330
atonnes	-8331
cessant	-8332
enaires	-8333
isement	-8334
istante	-8335
lifiant	-8336
marches	-8337
meliers	-8338
obianco	-8339
ophysis	-8340
tention	-8341
ticiens	-8342
tration	-8343
urgence	-8344
vateurs	-8345
veloppe	-8346
visible	-8347
▁accrue	-8348
▁algues	-8349
▁altern	-8350
▁annule	-8351
▁assomb	-8352
▁asthme	-8353
▁ballon	-8354
▁bander	-8355
▁banque	-8356
▁bassin	-8357
▁berger	-8358
▁bisons	-8359
▁bloque	-8360
▁bouton	-8361
▁breche	-8362
▁briser	-8363
▁camion	-8364
▁canadi	-8365
▁cantal	-8366
▁carlos	-8367
▁carniv	-8368
▁carres	-8369
▁casser	-8370
▁cecile	-8371
▁charte	-8372
▁chauff	-8373
▁choisi	-8374
▁cibles	-8375
▁cinema	-8376
▁coiffe	-8377
▁collab	-8378
▁combus	-8379
▁compli	-8380
▁cooley	-8381
▁copenh	-8382
▁cormor	-8383
▁couler	-8384
▁cousin	-8385
▁cremes	-8386
▁croise	-8387
▁cycles	-8388
▁cypres	-8389
▁damasi	-8390
▁datant	-8391
▁debats	-8392
▁declin	-8393
▁defile	-8394
▁desire	-8395
▁destru	-8396
▁devers	-8397
▁dialog	-8398
▁dimona	-8399
▁distin	-8400
▁divise	-8401
▁doctor	-8402
▁donnee	-8403
▁drogue	-8404
▁ecarts	-8405
▁elargi	-8406
▁eloign	-8407
▁envahi	-8408
▁etapes	-8409
▁flacon	-8410
▁frange	-8411
▁fuyant	-8412
▁genere	-8413
▁gibier	-8414
▁guyane	-8415
▁habite	-8416
▁hautes	-8417
▁humide	-8418
▁hygien	-8419
▁imagin	-8420
▁inclus	-8421
▁inclut	-8422
▁inconn	-8423
▁indemn	-8424
▁instru	-8425
▁jardin	-8426
▁joseph	-8427
▁kapiti	-8428
▁keilir	-8429
▁kosovo	-8430
▁lancet	-8431
▁larges	-8432
▁lignes	-8433
▁macias	-8434
▁maduro	-8435
▁medina	-8436
▁metaux	-8437
▁metier	-8438
▁milite	-8439
▁modele	-8440
▁modern	-8441
▁museum	-8442
▁myeloi	-8443
▁natanz	-8444
▁nievre	-8445
▁nuages	-8446
▁objets	-8447
▁offici	-8448
▁ordonn	-8449
▁patrou	-8450
▁pesant	-8451
▁philip	-8452
▁pieger	-8453
▁piquer	-8454
▁piqure	-8455
▁precon	-8456
▁prevus	-8457
▁priori	-8458
▁prouve	-8459
▁pulmon	-8460
▁reagit	-8461
▁recent	-8462
▁recule	-8463
▁refroi	-8464
▁regler	-8465
▁repete	-8466
▁repren	-8467
▁repute	-8468
▁requis	-8469
▁resili	-8470
▁rouges	-8471
▁rouler	-8472
▁samuel	-8473
▁savane	-8474
▁separe	-8475
▁seroja	-8476
▁soleil	-8477
▁sortis	-8478
▁sursis	-8479
▁taches	-8480
▁tanzan	-8481
▁tecton	-8482
▁tennis	-8483
▁testes	-8484
▁thomas	-8485
▁tomate	-8486
▁tombes	-8487
▁tourne	-8488
▁trente	-8489
▁truffe	-8490
▁valide	-8491
▁verbal	-8492
▁virgin	-8493
▁visent	-8494
▁vision	-8495
▁volume	-8496
▁voudra	-8497
ainement	-8498
oleances	-8499
ustibles	-8500
▁absolue	-8501
▁acceder	-8502
▁accords	-8503
▁admirer	-8504
▁alerter	-8505
▁allonge	-8506
▁annuler	-8507
▁anosmie	-8508
▁antenne	-8509
▁antonio	-8510
▁arrache	-8511
▁arrives	-8512
▁assumer	-8513
▁avocate	-8514
▁baarack	-8515
▁baleine	-8516
▁barents	-8517
▁bengale	-8518
▁bicycle	-8519
▁cabinet	-8520
▁cadence	-8521
▁calcule	-8522
▁calculs	-8523
▁calotte	-8524
▁cinemas	-8525
▁clandes	-8526
▁clement	-8527
▁cliente	-8528
▁combien	-8529
▁communs	-8530
▁compati	-8531
▁complet	-8532
▁concede	-8533
▁confond	-8534
▁connues	-8535
▁contest	-8536
▁couvert	-8537
▁crainte	-8538
▁creches	-8539
▁cultive	-8540
▁deconse	-8541
▁decrete	-8542
▁demeure	-8543
▁descend	-8544
▁detache	-8545
▁deverse	-8546
▁directe	-8547
▁dommage	-8548
▁doubler	-8549
▁echoues	-8550
▁edition	-8551
▁elargie	-8552
▁elargir	-8553
▁emplois	-8554
▁employe	-8555
▁enormes	-8556
▁enrayer	-8557
▁entamer	-8558
▁entendu	-8559
▁entoure	-8560
▁entrees	-8561
▁envoyes	-8562
▁erosion	-8563
▁estimer	-8564
▁etablit	-8565
▁fardeau	-8566
▁fermete	-8567
▁filiere	-8568
▁financi	-8569
▁fiocruz	-8570
▁froides	-8571
▁genique	-8572
▁gironde	-8573
▁hausses	-8574
▁heberge	-8575
▁herault	-8576
▁horizon	-8577
▁illegal	-8578
▁imagine	-8579
▁inedite	-8580
▁informe	-8581
▁injecte	-8582
▁intelle	-8583
▁investi	-8584
▁jugeant	-8585
▁legeres	-8586
▁liberer	-8587
▁libtayo	-8588
▁logique	-8589
▁mangent	-8590
▁manille	-8591
▁martins	-8592
▁moteurs	-8593
▁neglige	-8594
▁norilsk	-8595
▁options	-8596
▁pannier	-8597
▁passees	-8598
▁pasteur	-8599
▁pedagog	-8600
▁pelloux	-8601
▁pilotes	-8602
▁plafond	-8603
▁plainte	-8604
▁plaques	-8605
▁plongee	-8606
▁possede	-8607
▁pousser	-8608
▁prefets	-8609
▁prendra	-8610
▁preuves	-8611
▁ramadan	-8612
▁rangees	-8613
▁recuper	-8614
▁reitere	-8615
▁remplir	-8616
▁renifle	-8617
▁repandu	-8618
▁ressurg	-8619
▁riposte	-8620
▁saisonn	-8621
▁salazar	-8622
▁saleten	-8623
▁saumons	-8624
▁servier	-8625
▁silence	-8626
▁sinovac	-8627
▁solberg	-8628
▁sombres	-8629
▁sortant	-8630
▁spatial	-8631
▁steiner	-8632
▁stopper	-8633
▁stricte	-8634
▁symbole	-8635
▁tentant	-8636
▁tomates	-8637
▁tranche	-8638
▁tritiee	-8639
▁tritium	-8640
▁visiter	-8641
decesseur	-8642
diquement	-8643
ignements	-8644
obilistes	-8645
ometriose	-8646
otherapie	-8647
▁abattage	-8648
▁accorder	-8649
▁adaptees	-8650
▁aerienne	-8651
▁albanais	-8652
▁allaient	-8653
▁allergie	-8654
▁allouees	-8655
▁amertume	-8656
▁angoisse	-8657
▁annalena	-8658
▁annuelle	-8659
▁anonymat	-8660
▁apparent	-8661
▁arrivees	-8662
▁artifici	-8663
▁attendus	-8664
▁attitude	-8665
▁audience	-8666
▁auvergne	-8667
▁avantage	-8668
▁bachelot	-8669
▁baloutch	-8670
▁baptisee	-8671
▁beyrouth	-8672
▁biotechn	-8673
▁candidat	-8674
▁canicule	-8675
▁capables	-8676
▁carnaval	-8677
▁carriere	-8678
▁cellules	-8679
▁chamonix	-8680
▁comprise	-8681
▁comptent	-8682
▁concitoy	-8683
▁confiner	-8684
▁consacre	-8685
▁cotieres	-8686
▁courants	-8687
▁criteres	-8688
▁decidees	-8689
▁defendre	-8690
▁demarrer	-8691
▁depasser	-8692
▁destines	-8693
▁detruire	-8694
▁devastee	-8695
▁differen	-8696
▁diminuer	-8697
▁disparus	-8698
▁domaines	-8699
▁electron	-8700
▁elevages	-8701
▁emotions	-8702
▁encontre	-8703
▁engagent	-8704
▁epargnes	-8705
▁equateur	-8706
▁eruptive	-8707
▁espagnol	-8708
▁esperant	-8709
▁esperent	-8710
▁etudiees	-8711
▁existent	-8712
▁exprimer	-8713
▁feuilles	-8714
▁florence	-8715
▁football	-8716
▁frederic	-8717
▁glaciers	-8718
▁gregoire	-8719
▁habitude	-8720
▁heggenes	-8721
▁hesitent	-8722
▁heureuse	-8723
▁hostiles	-8724
▁imposant	-8725
▁incident	-8726
▁infectes	-8727
▁inquiets	-8728
▁instance	-8729
▁instaure	-8730
▁integrer	-8731
▁intenses	-8732
▁interpel	-8733
▁italiens	-8734
▁journaux	-8735
▁jumelles	-8736
▁leucemie	-8737
▁limitees	-8738
▁magasins	-8739
▁majeures	-8740
▁mediator	-8741
▁mesurees	-8742
▁mobilise	-8743
▁narendra	-8744
▁nettoyer	-8745
▁opposent	-8746
▁paraguay	-8747
▁paralyse	-8748
▁partager	-8749
▁pecheurs	-8750
▁penuries	-8751
▁plaidant	-8752
▁pointant	-8753
▁polluant	-8754
▁polluees	-8755
▁pourrons	-8756
▁poussant	-8757
▁preciser	-8758
▁preleves	-8759
▁prennent	-8760
▁prescrit	-8761
▁prononce	-8762
▁puissant	-8763
▁pyrenees	-8764
▁quatorze	-8765
▁rebelles	-8766
▁reclamer	-8767
▁regroupe	-8768
▁remorque	-8769
▁remplace	-8770
▁renforts	-8771
▁renoncer	-8772
▁repartie	-8773
▁republic	-8774
▁resoudre	-8775
▁ressenti	-8776
▁reussite	-8777
▁reveille	-8778
▁risquent	-8779
▁roselyne	-8780
▁roumanie	-8781
▁runacher	-8782
▁secondes	-8783
▁segolene	-8784
▁semences	-8785
▁senteurs	-8786
▁shanghai	-8787
▁solaires	-8788
▁spatiale	-8789
▁stockage	-8790
▁survivre	-8791
▁synonyme	-8792
▁terminee	-8793
▁tournant	-8794
▁trouvant	-8795
▁tunisien	-8796
▁urbaines	-8797
▁violence	-8798
▁vivement	-8799
▁zagalski	-8800
▁accompagn	-8801
▁acheminer	-8802
▁affichage	-8803
▁affronter	-8804
▁alimenter	-8805
▁allergies	-8806
▁ambitions	-8807
▁annoncees	-8808
▁appliquer	-8809
▁attendons	-8810
▁attention	-8811
▁avantages	-8812
▁bienfaits	-8813
▁bureaucra	-8814
▁calanques	-8815
▁cambridge	-8816
▁chaotique	-8817
▁chronique	-8818
▁cinquieme	-8819
▁circulent	-8820
▁collision	-8821
▁confirmer	-8822
▁consommer	-8823
▁contactee	-8824
▁contenant	-8825
▁contestee	-8826
▁croisiere	-8827
▁declarees	-8828
▁declenche	-8829
▁demandent	-8830
▁denoncant	-8831
▁depassant	-8832
▁depassent	-8833
▁destinees	-8834
▁detectees	-8835
▁determine	-8836
▁diversite	-8837
▁embrasser	-8838
▁endemique	-8839
▁endommage	-8840
▁etudiante	-8841
▁exception	-8842
▁explosive	-8843
▁fabricant	-8844
▁fermement	-8845
▁footprint	-8846
▁frequence	-8847
▁frequente	-8848
▁immunises	-8849
▁imperieux	-8850
▁incertain	-8851
▁incessant	-8852
▁incidents	-8853
▁insistent	-8854
▁installer	-8855
▁italienne	-8856
▁justifier	-8857
▁maitrisee	-8858
▁materiels	-8859
▁micheline	-8860
▁minimiser	-8861
▁moratoire	-8862
▁naissance	-8863
▁neanmoins	-8864
▁occitanie	-8865
▁officines	-8866
▁onusienne	-8867
▁opposants	-8868
▁pancartes	-8869
▁pandemies	-8870
▁parabenes	-8871
▁parisiens	-8872
▁partagent	-8873
▁performan	-8874
▁pingouins	-8875
▁plaisance	-8876
▁polemique	-8877
▁portugais	-8878
▁positives	-8879
▁preferent	-8880
▁premature	-8881
▁preoccupe	-8882
▁profondes	-8883
▁prolonger	-8884
▁propriete	-8885
▁puissions	-8886
▁rapportes	-8887
▁rattraper	-8888
▁reaffirme	-8889
▁reclamant	-8890
▁recreatif	-8891
▁reflechit	-8892
▁relations	-8893
▁renouvele	-8894
▁restaurer	-8895
▁sanctions	-8896
▁souffrent	-8897
▁soufriere	-8898
▁souhaiter	-8899
▁stanislas	-8900
▁subissent	-8901
▁substance	-8902
▁suffisant	-8903
▁supporter	-8904
▁surveille	-8905
▁thermique	-8906
▁tournesol	-8907
▁tropiques	-8908
▁turquoise	-8909
▁unanimite	-8910
▁utilisant	-8911
▁velodrome	-8912
▁virulente	-8913
▁yemenites	-8914
▁accaparent	-8915
▁adaptation	-8916
▁ambulances	-8917
▁ameliorees	-8918
▁apprennent	-8919
▁atteignant	-8920
▁atteignent	-8921
▁autoroutes	-8922
▁capobianco	-8923
▁categories	-8924
▁catholique	-8925
▁cerebrales	-8926
▁certificat	-8927
▁chameliers	-8928
▁collectees	-8929
▁conception	-8930
▁contrainte	-8931
▁contribuer	-8932
▁conviction	-8933
▁coralliens	-8934
▁cyclonique	-8935
▁declenchee	-8936
▁definitive	-8937
▁depressifs	-8938
▁derogation	-8939
▁dinophysis	-8940
▁discussion	-8941
▁domestique	-8942
▁dromadaire	-8943
▁ecoulement	-8944
▁enormement	-8945
▁expliquait	-8946
▁favorables	-8947
▁fonctionne	-8948
▁fondatrice	-8949
▁funeraires	-8950
▁grievement	-8951
▁interpelle	-8952
▁irrigation	-8953
▁jihadistes	-8954
▁legerement	-8955
▁liberation	-8956
▁localement	-8957
▁montraient	-8958
▁multilater	-8959
▁necessiter	-8960
▁nucleaires	-8961
▁peripherie	-8962
▁permanence	-8963
▁prematures	-8964
▁privilegie	-8965
▁produisant	-8966
▁promouvoir	-8967
▁rapportent	-8968
▁reconfiner	-8969
▁referendum	-8970
▁regulateur	-8971
▁renovation	-8972
▁resistance	-8973
▁respectent	-8974
▁resurgence	-8975
▁revendique	-8976
▁salivaires	-8977
▁socialiste	-8978
▁souhaitait	-8979
▁souhaitent	-8980
▁strasbourg	-8981
▁survivants	-8982
▁telegramme	-8983
▁transferts	-8984
▁transporte	-8985
▁turquoises	-8986
▁urgentiste	-8987
▁vegetation	-8988
▁visibilite	-8989
▁accompagnee	-8990
▁allegements	-8991
▁amendements	-8992
▁appartement	-8993
▁appellation	-8994
▁approbation	-8995
▁artificiels	-8996
▁braconniers	-8997
▁cisjordanie	-8998
▁combinaison	-8999
▁conducteurs	-9000
▁constamment	-9001
▁contaminees	-9002
▁debarrasser	-9003
▁dereglement	-9004
▁dromadaires	-9005
▁equipements	-9006
▁fabrication	-9007
▁gendarmerie	-9008
▁generaliser	-9009
▁generaliste	-9010
▁geophysique	-9011
▁hospitalise	-9012
▁independant	-9013
▁indonesiens	-9014
▁innovations	-9015
▁institution	-9016
▁norvegienne	-9017
▁obligations	-9018
▁opportunite	-9019
▁orientation	-9020
▁preoccupant	-9021
▁rapporteure	-9022
▁recueillies	-9023
▁relachement	-9024
▁repertories	-9025
▁secouristes	-9026
▁signalement	-9027
▁smithsonian	-9028
▁soulagement	-9029
▁subventions	-9030
▁suffisantes	-9031
▁suppression	-9032
▁transportes	-9033
▁travaillant	-9034
▁trentenaire	-9035
▁utilisateur	-9036
▁vasculaires	-9037
▁ventilation	-9038
▁cancerogenes	-9039
▁certainement	-9040
▁combustibles	-9041
▁commentaires	-9042
▁condoleances	-9043
▁connaissance	-9044
▁constitution	-9045
▁correctement	-9046
▁decroissance	-9047
▁devastatrice	-9048
▁diagnostique	-9049
▁endocriniens	-9050
▁endometriose	-9051
▁financements	-9052
▁heureusement	-9053
▁hospitalisee	-9054
▁indesirables	-9055
▁installation	-9056
▁irremediable	-9057
▁nidification	-9058
▁observations	-9059
▁palestiniens	-9060
▁perturbation	-9061
▁potentielles	-9062
▁predecesseur	-9063
▁preservation	-9064
▁publications	-9065
▁reapparition	-9066
▁renouvelable	-9067
▁restauration	-9068
▁supermarches	-9069
▁systematique	-9070
▁territoriale	-9071
▁transmettent	-9072
▁transparence	-9073
▁urbanisation	-9074
▁utilisateurs	-9075
▁vulcanologue	-9076
▁accelerations	-9077
▁autorisations	-9078
▁baloutchistan	-9079
▁chirurgicales	-9080
▁circonstances	-9081
▁comptabilises	-9082
▁concentration	-9083
▁correspondant	-9084
▁diagnostiquer	-9085
▁geldingadalur	-9086
▁indispensable	-9087
▁manifestation	-9088
▁parallelement	-9089
▁personnalites	-9090
▁perturbations	-9091
▁preoccupation	-9092
▁problematique	-9093
▁reconnaissant	-9094
▁reevaluations	-9095
▁restaurateurs	-9096
▁vaccinodromes	-9097
▁agglomerations	-9098
▁automobilistes	-9099
▁biotechnologie	-9100
▁catastrophique	-9101
▁concentrations	-9102
▁extraordinaire	-9103
▁identification	-9104
▁intermediaires	-9105
▁investissement	-9106
▁renouvellement	-9107
▁asymptomatiques	-9108
ba	-9109
bl	-9110
ea	-9111
eb	-9112
ep	-9113
fa	-9114
gp	-9115
hm	-9116
ku	-9117
ky	-9118
mk	-9119
nc	-9120
nu	-9121
oz	-9122
po	-9123
acc	-9124
ado	-9125
aff	-9126
ago	-9127
air	-9128
ary	-9129
bru	-9130
col	-9131
cor	-9132
cts	-9133
dac	-9134
deg	-9135
dho	-9136
dio	-9137
dog	-9138
dot	-9139
dys	-9140
eld	-9141
eto	-9142
fac	-9143
fai	-9144
fre	-9145
gac	-9146
gol	-9147
hen	-9148
hid	-9149
hle	-9150
hre	-9151
ich	-9152
icz	-9153
ida	-9154
idi	-9155
iea	-9156
iff	-9157
ima	-9158
imi	-9159
inp	-9160
isa	-9161
ium	-9162
ive	-9163
jam	-9164
jus	-9165
kal	-9166
kar	-9167
lah	-9168
lio	-9169
lot	-9170
mab	-9171
mba	-9172
mme	-9173
mun	-9174
och	-9175
ogo	-9176
old	-9177
ols	-9178
omo	-9179
onz	-9180
oon	-9181
ost	-9182
oto	-9183
oum	-9184
pha	-9185
rah	-9186
rax	-9187
ria	-9188
rog	-9189
sac	-9190
sit	-9191
tel	-9192
tox	-9193
tro	-9194
uih	-9195
ult	-9196
ury	-9197
uts	-9198
via	-9199
vra	-9200
xie	-9201
yee	-9202
▁ah	-9203
▁cs	-9204
▁cu	-9205
▁eu	-9206
▁gl	-9207
▁ii	-9208
▁ip	-9209
▁ky	-9210
▁ok	-9211
abil	-9212
acer	-9213
agas	-9214
airo	-9215
aize	-9216
alez	-9217
alte	-9218
amis	-9219
anne	-9220
anov	-9221
ares	-9222
ases	-9223
atal	-9224
atts	-9225
cier	-9226
coit	-9227
cure	-9228
deau	-9229
dequ	-9230
dhoo	-9231
dict	-9232
dres	-9233
dron	-9234
elin	-9235
eneg	-9236
erle	-9237
erne	-9238
esti	-9239
esus	-9240
etan	-9241
eurs	-9242
feld	-9243
ffee	-9244
fies	-9245
guez	-9246
hang	-9247
hlel	-9248
iaux	-9249
ical	-9250
ichi	-9251
ider	-9252
igee	-9253
igny	-9254
ilie	-9255
imer	-9256
isol	-9257
isph	-9258
issa	-9259
issy	-9260
line	-9261
mere	-9262
meut	-9263
mier	-9264
mont	-9265
nais	-9266
nels	-9267
neum	-9268
ogal	-9269
ogee	-9270
ollu	-9271
ondu	-9272
onee	-9273
onoi	-9274
opes	-9275
opsy	-9276
ords	-9277
oree	-9278
oter	-9279
otin	-9280
oule	-9281
rass	-9282
rego	-9283
rene	-9284
reno	-9285
rieu	-9286
sika	-9287
sius	-9288
tika	-9289
tour	-9290
ttre	-9291
tule	-9292
uait	-9293
ulle	-9294
umes	-9295
unya	-9296
vais	-9297
veig	-9298
vens	-9299
ygar	-9300
zamb	-9301
zere	-9302
▁adh	-9303
▁ami	-9304
▁ane	-9305
▁asn	-9306
▁bay	-9307
▁biz	-9308
▁bla	-9309
▁bun	-9310
▁cic	-9311
▁cot	-9312
▁cox	-9313
▁cum	-9314
▁dub	-9315
▁dut	-9316
▁elu	-9317
▁era	-9318
▁eti	-9319
▁eur	-9320
▁fad	-9321
▁gla	-9322
▁guj	-9323
▁hve	-9324
▁ica	-9325
▁jal	-9326
▁jet	-9327
▁jos	-9328
▁kad	-9329
▁kav	-9330
▁lai	-9331
▁lez	-9332
▁lox	-9333
▁loy	-9334
▁lur	-9335
▁lyn	-9336
▁mem	-9337
▁mur	-9338
▁ral	-9339
▁ram	-9340
▁rig	-9341
▁rit	-9342
▁rtl	-9343
▁sar	-9344
▁sha	-9345
▁sos	-9346
▁sup	-9347
▁tat	-9348
▁tub	-9349
▁typ	-9350
▁vau	-9351
▁zfe	-9352
acchi	-9353
achar	-9354
alens	-9355
alent	-9356
amens	-9357
ament	-9358
andra	-9359
anger	-9360
angle	-9361
anova	-9362
ansas	-9363
apour	-9364
arges	-9365
arium	-9366
arrhe	-9367
artph	-9368
assan	-9369
athan	-9370
atori	-9371
chier	-9372
chner	-9373
conne	-9374
culee	-9375
dicte	-9376
dsson	-9377
ellie	-9378
enden	-9379
enhua	-9380
ensus	-9381
esite	-9382
gueur	-9383
hrein	-9384
icite	-9385
idite	-9386
iffel	-9387
ignes	-9388
ilees	-9389
inent	-9390
ingen	-9391
inosi	-9392
irant	-9393
isait	-9394
itait	-9395
lesse	-9396
lient	-9397
lines	-9398
liola	-9399
ody	-9400
ethon	-9401
inken	-9402
lions	-9403
mbata	-9404
mence	-9405
morra	-9406
neaux	-9407
oides	-9408
olina	-9409
onaux	-9410
onien	-9411
onome	-9412
ordes	-9413
orent	-9414
ppaux	-9415
range	-9416
rasse	-9417
raste	-9418
regon	-9419
reint	-9420
resid	-9421
rides	-9422
riote	-9423
ruter	-9424
selle	-9425
taces	-9426
thieu	-9427
tillo	-9428
toria	-9429
trait	-9430
trico	-9431
ubles	-9432
uisse	-9433
umere	-9434
ureur	-9435
ustus	-9436
vador	-9437
veaux	-9438
veuse	-9439
vides	-9440
viens	-9441
▁aber	-9442
▁achi	-9443
▁aiea	-9444
▁amas	-9445
▁ames	-9446
▁anor	-9447
▁anss	-9448
▁arts	-9449
▁auth	-9450
▁avic	-9451
▁baie	-9452
▁bali	-9453
▁bann	-9454
▁batt	-9455
▁bete	-9456
▁blue	-9457
▁boud	-9458
▁brad	-9459
▁bron	-9460
▁brut	-9461
▁chap	-9462
▁chik	-9463
▁chru	-9464
▁civb	-9465
▁clem	-9466
▁clos	-9467
▁cock	-9468
▁cogn	-9469
▁cori	-9470
▁cuve	-9471
▁data	-9472
▁detr	-9473
▁dgac	-9474
▁dord	-9475
▁ecla	-9476
▁ella	-9477
▁enri	-9478
▁etal	-9479
▁exig	-9480
▁expe	-9481
▁faib	-9482
▁fans	-9483
▁fant	-9484
▁farm	-9485
▁feli	-9486
▁fide	-9487
▁foet	-9488
▁frai	-9489
▁gagn	-9490
▁gate	-9491
▁geor	-9492
▁gerd	-9493
▁gign	-9494
▁gour	-9495
▁hall	-9496
▁hend	-9497
▁hugo	-9498
▁huis	-9499
auea	-9500
dings	-9501
parif	-9502
▁atag	-9503
▁cams	-9504
▁frus	-9505
▁ifre	-9506
▁ilan	-9507
▁impu	-9508
▁inco	-9509
▁incu	-9510
▁isol	-9511
▁issu	-9512
▁java	-9513
▁jeux	-9514
▁juan	-9515
▁kris	-9516
▁lacs	-9517
▁land	-9518
▁lens	-9519
▁lent	-9520
▁lima	-9521
▁lire	-9522
▁loir	-9523
▁luth	-9524
▁mali	-9525
▁melb	-9526
▁miel	-9527
▁mira	-9528
▁mons	-9529
▁mord	-9530
▁murs	-9531
▁nath	-9532
▁ndeg	-9533
▁noci	-9534
▁nova	-9535
▁okin	-9536
▁omar	-9537
▁open	-9538
▁orph	-9539
▁osez	-9540
▁ouma	-9541
▁page	-9542
▁pant	-9543
▁parr	-9544
▁pent	-9545
▁pitt	-9546
▁porc	-9547
▁rade	-9548
▁rage	-9549
▁rall	-9550
▁rate	-9551
▁reec	-9552
▁rift	-9553
▁sage	-9554
▁sauc	-9555
▁scep	-9556
▁sche	-9557
▁seme	-9558
▁shar	-9559
▁sras	-9560
▁stig	-9561
▁surv	-9562
▁taxe	-9563
▁thes	-9564
▁tien	-9565
▁timo	-9566
▁tira	-9567
▁tole	-9568
▁trah	-9569
▁trin	-9570
▁tute	-9571
▁ursi	-9572
▁verd	-9573
▁vier	-9574
▁visa	-9575
▁voud	-9576
▁yann	-9577
▁yves	-9578
airobi	-9579
alence	-9580
aliers	-9581
alloin	-9582
amedic	-9583
ancent	-9584
anteau	-9585
arites	-9586
ashing	-9587
ataire	-9588
atiers	-9589
atombe	-9590
berana	-9591
cieuse	-9592
destag	-9593
dicale	-9594
dottir	-9595
ellion	-9596
fiants	-9597
gerent	-9598
gnerie	-9599
midt	-9600
▁png	-9601
amien	-9602
mouth	-9603
obile	-9604
rofes	-9605
▁brig	-9606
▁jung	-9607
houaie	-9608
iciens	-9609
ifiees	-9610
ildact	-9611
ilibre	-9612
illart	-9613
ingsto	-9614
iosite	-9615
itatif	-9616
lables	-9617
laient	-9618
lanter	-9619
maleia	-9620
mandou	-9621
mateur	-9622
matise	-9623
monies	-9624
nation	-9625
oignee	-9626
oivent	-9627
ometre	-9628
omique	-9629
ondues	-9630
onesse	-9631
ortage	-9632
otopes	-9633
ourent	-9634
ousser	-9635
outant	-9636
ouvant	-9637
querie	-9638
riller	-9639
rimees	-9640
roscop	-9641
tendre	-9642
timore	-9643
toplan	-9644
treint	-9645
triers	-9646
truire	-9647
uaient	-9648
ualite	-9649
uisent	-9650
ulsion	-9651
veaune	-9652
ythmie	-9653
▁abris	-9654
▁accra	-9655
▁acous	-9656
▁actif	-9657
▁adequ	-9658
▁agnes	-9659
▁aidez	-9660
▁alice	-9661
▁amene	-9662
▁amont	-9663
▁amuse	-9664
▁anime	-9665
▁antib	-9666
▁arabe	-9667
▁arbit	-9668
▁artis	-9669
▁assis	-9670
▁atrax	-9671
▁bains	-9672
▁battu	-9673
▁bebes	-9674
▁belge	-9675
▁bombe	-9676
▁bonde	-9677
▁branc	-9678
▁brasi	-9679
▁breve	-9680
▁brume	-9681
▁cache	-9682
▁canal	-9683
▁carab	-9684
▁cargo	-9685
▁caric	-9686
▁chaos	-9687
▁chath	-9688
▁chefs	-9689
▁colza	-9690
▁concu	-9691
▁coups	-9692
▁credi	-9693
▁creux	-9694
▁crime	-9695
▁cubes	-9696
▁culti	-9697
▁cycle	-9698
▁decor	-9699
▁szy	-9700
champ	-9701
▁dmit	-9702
▁kivu	-9703
▁osdh	-9704
erbock	-9705
itrine	-9706
opolis	-9707
▁alpin	-9708
▁bazar	-9709
▁beton	-9710
▁deliv	-9711
▁denig	-9712
▁depos	-9713
▁desir	-9714
▁diego	-9715
▁dissi	-9716
▁dumas	-9717
▁durci	-9718
▁dures	-9719
▁ecolo	-9720
▁email	-9721
▁embal	-9722
▁envie	-9723
▁epand	-9724
▁epoux	-9725
▁escar	-9726
▁essor	-9727
▁evite	-9728
▁exemp	-9729
▁exode	-9730
▁farou	-9731
▁femin	-9732
▁fevre	-9733
▁finie	-9734
▁finit	-9735
▁fixer	-9736
▁flanc	-9737
▁focal	-9738
▁forum	-9739
▁fouet	-9740
▁frere	-9741
▁fruit	-9742
▁gares	-9743
▁ghane	-9744
▁gross	-9745
▁gueri	-9746
▁gynec	-9747
▁henri	-9748
▁heros	-9749
▁horiz	-9750
▁ibera	-9751
▁ideal	-9752
▁ignor	-9753
▁insec	-9754
▁inuti	-9755
▁ivoir	-9756
▁jauge	-9757
▁jesus	-9758
▁jetee	-9759
▁johns	-9760
▁jonas	-9761
▁kadjo	-9762
▁katie	-9763
▁kines	-9764
▁kosty	-9765
▁libra	-9766
▁ligue	-9767
▁loups	-9768
▁lueur	-9769
▁mambo	-9770
▁manip	-9771
▁marco	-9772
▁massi	-9773
▁mehai	-9774
▁melen	-9775
▁miami	-9776
▁mille	-9777
▁mines	-9778
▁minor	-9779
▁mixte	-9780
▁moder	-9781
▁motor	-9782
▁msika	-9783
▁munis	-9784
▁myste	-9785
▁nasal	-9786
▁neuve	-9787
▁obsta	-9788
▁ombre	-9789
▁ondes	-9790
▁oscar	-9791
▁otter	-9792
▁pacte	-9793
▁pages	-9794
▁paves	-9795
▁penal	-9796
▁perin	-9797
▁peser	-9798
▁phtal	-9799
mkie	-9800
▁iii	-9801
bruck	-9802
sitot	-9803
▁gonz	-9804
▁guih	-9805
▁jinp	-9806
isphen	-9807
ochori	-9808
▁audac	-9809
▁ipbes	-9810
▁kyoto	-9811
▁munoz	-9812
▁nulle	-9813
▁okita	-9814
▁olfac	-9815
▁physi	-9816
▁pitie	-9817
▁piton	-9818
▁plans	-9819
▁pneum	-9820
▁poles	-9821
▁polic	-9822
▁ponts	-9823
▁poste	-9824
▁prati	-9825
▁prets	-9826
▁proie	-9827
▁pygar	-9828
▁quint	-9829
▁radar	-9830
▁razon	-9831
▁redec	-9832
▁reels	-9833
▁regen	-9834
▁reine	-9835
▁relie	-9836
▁remar	-9837
▁resol	-9838
▁retar	-9839
▁rever	-9840
▁rijal	-9841
▁robus	-9842
▁rouen	-9843
▁roule	-9844
▁ruche	-9845
▁salon	-9846
▁santi	-9847
▁score	-9848
▁septu	-9849
▁seren	-9850
▁silen	-9851
▁silva	-9852
▁solde	-9853
▁solen	-9854
▁soule	-9855
▁stupe	-9856
▁subie	-9857
▁surch	-9858
▁sures	-9859
▁teste	-9860
▁thune	-9861
▁tiens	-9862
▁times	-9863
▁toler	-9864
▁tolle	-9865
▁tonte	-9866
▁touch	-9867
▁tourn	-9868
▁tours	-9869
▁trier	-9870
▁troph	-9871
▁ulter	-9872
▁venin	-9873
▁vertu	-9874
▁viser	-9875
▁vives	-9876
▁votee	-9877
▁xiiie	-9878
▁zhang	-9879
accords	-9880
agement	-9881
aissait	-9882
alensky	-9883
alisees	-9884
allages	-9885
amensis	-9886
andises	-9887
anement	-9888
ctuelle	-9889
eekends	-9890
fluores	-9891
gations	-9892
generes	-9893
gieuses	-9894
illiams	-9895
iration	-9896
issants	-9897
ivement	-9898
landais	-9899
houaiej	-9900
licites	-9901
onneuse	-9902
onniers	-9903
onoidis	-9904
opoulou	-9905
opsychi	-9906
oureuse	-9907
porelle	-9908
quelles	-9909
ressant	-9910
tionnel	-9911
traient	-9912
ulaires	-9913
ungunya	-9914
utiques	-9915
ynthese	-9916
ysicien	-9917
▁aidant	-9918
▁alexis	-9919
▁aligne	-9920
▁allume	-9921
▁aneant	-9922
▁angers	-9923
▁antivi	-9924
▁antony	-9925
▁apogee	-9926
▁apparu	-9927
▁argile	-9928
▁armees	-9929
▁aurais	-9930
▁averee	-9931
▁avorte	-9932
▁barres	-9933
▁battre	-9934
▁belges	-9935
▁campus	-9936
▁carton	-9937
▁cauche	-9938
▁causer	-9939
▁chaize	-9940
▁charaf	-9941
▁chauve	-9942
▁cheval	-9943
▁chirop	-9944
▁claire	-9945
▁coince	-9946
▁coloss	-9947
▁commis	-9948
▁connec	-9949
▁costag	-9950
▁couper	-9951
▁coupes	-9952
▁courir	-9953
▁creant	-9954
▁dangel	-9955
▁decime	-9956
▁deconf	-9957
▁decrit	-9958
▁dedans	-9959
▁defaut	-9960
▁delits	-9961
▁deluge	-9962
▁delzon	-9963
▁dendie	-9964
▁dengue	-9965
▁desemp	-9966
▁deseng	-9967
▁desole	-9968
▁distri	-9969
▁domine	-9970
▁eiffel	-9971
▁elever	-9972
▁empris	-9973
▁enclin	-9974
▁enjeux	-9975
▁ennemi	-9976
▁equite	-9977
▁espagn	-9978
▁etendu	-9979
▁etique	-9980
▁eurone	-9981
▁evalue	-9982
▁exerce	-9983
▁exploi	-9984
▁fermee	-9985
▁flaman	-9986
▁flambe	-9987
▁flamme	-9988
▁fondre	-9989
▁fontan	-9990
▁forcer	-9991
▁formee	-9992
▁franck	-9993
▁fumees	-9994
▁funera	-9995
▁gaetan	-9996
▁gelees	-9997
▁gerard	-9998
▁gladys	-9999
▁gluaux	-10000
▁grandi	-10001
▁gratte	-10002
▁grives	-10003
▁gronde	-10004
▁habeck	-10005
▁harmon	-10006
▁hivers	-10007
▁hordes	-10008
▁huiles	-10009
▁humeur	-10010
▁ignore	-10011
▁immeub	-10012
▁impati	-10013
▁impera	-10014
▁impute	-10015
▁inadap	-10016
▁indire	-10017
▁innomb	-10018
▁inters	-10019
▁intrus	-10020
▁invent	-10021
▁invers	-10022
▁invisi	-10023
▁jauges	-10024
▁jouait	-10025
▁jouant	-10026
▁jugees	-10027
▁karine	-10028
▁lagoon	-10029
▁landes	-10030
▁larves	-10031
▁legion	-10032
▁legume	-10033
▁lettre	-10034
▁libres	-10035
▁lichen	-10036
▁litter	-10037
▁macera	-10038
▁maitre	-10039
▁marise	-10040
▁meconn	-10041
▁merles	-10042
▁minier	-10043
▁moreno	-10044
▁moteur	-10045
▁mozamb	-10046
▁mygale	-10047
▁neiges	-10048
▁nommee	-10049
▁operer	-10050
▁ordres	-10051
▁oregon	-10052
▁origin	-10053
▁outils	-10054
▁peches	-10055
▁perdue	-10056
▁perito	-10057
▁pertur	-10058
▁plebis	-10059
▁pleins	-10060
▁pleure	-10061
▁portob	-10062
▁posent	-10063
▁postes	-10064
▁predit	-10065
▁prends	-10066
▁prenom	-10067
▁profil	-10068
▁promul	-10069
▁quinqu	-10070
▁rafael	-10071
▁raille	-10072
▁ramona	-10073
▁recoit	-10074
▁recouv	-10075
▁regain	-10076
▁regret	-10077
▁relaxe	-10078
▁relier	-10079
▁renard	-10080
▁rendra	-10081
▁rendue	-10082
▁rendus	-10083
▁rentre	-10084
▁renvoi	-10085
▁repose	-10086
▁restee	-10087
▁retent	-10088
▁rideau	-10089
▁rocher	-10090
▁roissy	-10091
▁rouver	-10092
▁sainte	-10093
▁saluer	-10094
▁santos	-10095
▁savent	-10096
▁sejour	-10097
▁sering	-10098
▁serres	-10099
▁sousse	-10100
▁souver	-10101
▁soyons	-10102
▁stabil	-10103
▁surete	-10104
▁symbol	-10105
▁termin	-10106
▁themes	-10107
▁timide	-10108
▁tirent	-10109
▁tombee	-10110
▁tortue	-10111
▁traine	-10112
▁trains	-10113
▁triple	-10114
▁trombe	-10115
▁urbain	-10116
▁urrego	-10117
▁usages	-10118
▁vallet	-10119
▁venues	-10120
▁verger	-10121
▁verser	-10122
▁vitale	-10123
▁volant	-10124
▁volati	-10125
▁voulue	-10126
▁voyant	-10127
▁zachar	-10128
artphone	-10129
ceptable	-10130
ensation	-10131
geaisons	-10132
ionnelle	-10133
iotiques	-10134
istantes	-10135
moration	-10136
ographie	-10137
ollution	-10138
ondeuses	-10139
ormation	-10140
sibilite	-10141
tabilite	-10142
tiennent	-10143
titution	-10144
▁abattus	-10145
▁abeille	-10146
▁abriter	-10147
▁abscent	-10148
▁accepte	-10149
▁accroit	-10150
▁accusee	-10151
▁achevee	-10152
▁adaptee	-10153
▁adoptee	-10154
▁agences	-10155
▁alertes	-10156
▁alleger	-10157
▁anthony	-10158
▁anticip	-10159
▁apparue	-10160
▁apparus	-10161
▁appelee	-10162
▁appetit	-10163
▁apprend	-10164
▁apprent	-10165
▁arguant	-10166
▁arktika	-10167
▁arretes	-10168
▁aspects	-10169
▁atterri	-10170
▁attribu	-10171
▁aurions	-10172
▁autocht	-10173
▁autonom	-10174
▁bahrein	-10175
▁bascule	-10176
▁bisphen	-10177
▁bizarre	-10178
▁blinken	-10179
▁bobigny	-10180
▁bouhlel	-10181
▁bouleau	-10182
▁cacique	-10183
▁camille	-10184
▁capable	-10185
▁causees	-10186
▁celsius	-10187
▁central	-10188
▁cerveau	-10189
▁chances	-10190
▁choisir	-10191
▁citoyen	-10192
▁classer	-10193
▁cocaine	-10194
▁combine	-10195
▁combler	-10196
▁competi	-10197
▁concept	-10198
▁coordin	-10199
▁coutent	-10200
▁couteux	-10201
▁cratere	-10202
▁cristal	-10203
▁curieux	-10204
▁daiichi	-10205
▁danoise	-10206
▁decedes	-10207
▁defiler	-10208
▁definir	-10209
▁demence	-10210
▁depeche	-10211
▁deputee	-10212
▁deroule	-10213
▁destruc	-10214
▁detrico	-10215
▁devaste	-10216
▁diarrhe	-10217
▁diplome	-10218
▁dirigee	-10219
▁discute	-10220
▁dixieme	-10221
▁efforce	-10222
▁eglises	-10223
▁embolie	-10224
▁emettre	-10225
▁emprunt	-10226
▁entamee	-10227
▁enterre	-10228
▁entiers	-10229
▁enumere	-10230
▁epuises	-10231
▁essayer	-10232
▁estonie	-10233
▁etendre	-10234
▁exclure	-10235
▁experte	-10236
▁extrait	-10237
▁fichier	-10238
▁fiction	-10239
▁flammes	-10240
▁florian	-10241
▁floride	-10242
▁formule	-10243
▁franche	-10244
▁futures	-10245
▁geantes	-10246
▁gignoux	-10247
▁gonesse	-10248
▁goudron	-10249
▁graduee	-10250
▁graines	-10251
▁grandir	-10252
▁grimper	-10253
▁guihard	-10254
▁gujarat	-10255
▁halloin	-10256
▁harlock	-10257
▁hemorra	-10258
▁hongrie	-10259
▁hopkins	-10260
▁hygiene	-10261
▁ifremer	-10262
▁ignorer	-10263
▁importa	-10264
▁indices	-10265
▁inondee	-10266
▁irlande	-10267
▁isolees	-10268
▁jettent	-10269
▁jinping	-10270
▁kilauea	-10271
▁kingsto	-10272
▁laisses	-10273
▁lambert	-10274
▁lancees	-10275
▁lapines	-10276
▁larissa	-10277
▁lembata	-10278
▁lobbies	-10279
▁lourdes	-10280
▁lyceens	-10281
▁manteau	-10282
▁marcher	-10283
▁martens	-10284
▁mathieu	-10285
▁maudhoo	-10286
▁memoire	-10287
▁mercure	-10288
▁meubles	-10289
▁milieux	-10290
▁mineurs	-10291
▁miseres	-10292
▁moments	-10293
▁montent	-10294
▁montres	-10295
▁moselle	-10296
▁nairobi	-10297
▁nefaste	-10298
▁niamien	-10299
▁notoire	-10300
▁obesite	-10301
▁obligee	-10302
▁offerte	-10303
▁orangee	-10304
▁ordures	-10305
▁organes	-10306
▁ouvrant	-10307
▁ovenden	-10308
▁paradis	-10309
▁paralys	-10310
▁parfait	-10311
▁partent	-10312
▁penchee	-10313
▁pencher	-10314
▁penible	-10315
▁pensait	-10316
▁perdent	-10317
▁poignee	-10318
▁poisson	-10319
▁pompage	-10320
▁pourrai	-10321
▁pousses	-10322
▁prefere	-10323
▁promeut	-10324
▁prouver	-10325
▁publier	-10326
▁quindio	-10327
▁ralenti	-10328
▁rassure	-10329
▁ravages	-10330
▁refugie	-10331
▁relever	-10332
▁rencher	-10333
▁rendent	-10334
▁repasse	-10335
▁reperes	-10336
▁resiste	-10337
▁restera	-10338
▁retarde	-10339
▁retenir	-10340
▁retrait	-10341
▁reussir	-10342
▁reveler	-10343
▁reviend	-10344
▁rigueur	-10345
▁robinet	-10346
▁romains	-10347
▁rongeur	-10348
▁roulier	-10349
▁routier	-10350
▁ruchers	-10351
▁saluant	-10352
▁sanchez	-10353
▁sapeurs	-10354
▁schmidt	-10355
▁scooter	-10356
▁section	-10357
▁seniors	-10358
▁signaux	-10359
▁solveig	-10360
▁sortent	-10361
▁sorties	-10362
▁soumise	-10363
▁spinosi	-10364
▁suivent	-10365
▁surpren	-10366
▁survecu	-10367
▁survenu	-10368
▁suspici	-10369
▁sylvain	-10370
▁szymkie	-10371
▁tambour	-10372
▁temoins	-10373
▁tiendra	-10374
▁traduit	-10375
▁traitee	-10376
▁traites	-10377
▁trajets	-10378
▁tremble	-10379
▁uniques	-10380
▁vecteur	-10381
▁verdict	-10382
▁viendra	-10383
▁violent	-10384
▁virales	-10385
▁visages	-10386
▁voulant	-10387
▁zhenhua	-10388
aissement	-10389
amedicaux	-10390
illonnage	-10391
lablement	-10392
lantation	-10393
▁accueill	-10394
▁accumule	-10395
▁achemine	-10396
▁addition	-10397
▁adjointe	-10398
▁aggraver	-10399
▁airparif	-10400
▁alarmant	-10401
▁aliments	-10402
▁american	-10403
▁amorcons	-10404
▁anticipe	-10405
▁antilles	-10406
▁apercoit	-10407
▁apprecie	-10408
▁appuyant	-10409
▁arkansas	-10410
▁arythmie	-10411
▁assiette	-10412
▁assombri	-10413
▁atteigne	-10414
▁attraper	-10415
▁aurelien	-10416
▁aussitot	-10417
▁autonome	-10418
▁avancees	-10419
▁avicenne	-10420
▁baerbock	-10421
▁barrages	-10422
▁benevole	-10423
▁blanches	-10424
▁branches	-10425
▁calculer	-10426
▁calottes	-10427
▁cancerig	-10428
▁caroline	-10429
▁casanova	-10430
▁cerveaux	-10431
▁charente	-10432
▁chatelet	-10433
▁circuits	-10434
▁clemence	-10435
▁cocktail	-10436
▁coherent	-10437
▁collegue	-10438
▁colonies	-10439
▁compatri	-10440
▁comprend	-10441
▁condrieu	-10442
▁confinee	-10443
▁conserve	-10444
▁contacte	-10445
▁contient	-10446
▁convoque	-10447
▁copresid	-10448
▁couloirs	-10449
▁couronne	-10450
▁couvrent	-10451
▁crateres	-10452
▁creneaux	-10453
▁culturel	-10454
▁decompte	-10455
▁decouvre	-10456
▁degrader	-10457
▁deleguee	-10458
▁depister	-10459
▁derouler	-10460
▁designes	-10461
▁desireux	-10462
▁detectee	-10463
▁devoilee	-10464
▁dialogue	-10465
▁disposer	-10466
▁diversif	-10467
▁dordogne	-10468
▁dossiers	-10469
▁douleurs	-10470
▁dressees	-10471
▁durables	-10472
▁edifices	-10473
▁egyptien	-10474
▁elaborer	-10475
▁election	-10476
▁eleveurs	-10477
▁eloigner	-10478
▁embellie	-10479
▁emettent	-10480
▁emporter	-10481
▁enfermer	-10482
▁enfreint	-10483
▁entendus	-10484
▁entieres	-10485
▁envoyees	-10486
▁equatori	-10487
▁equipees	-10488
▁estivale	-10489
▁evacuees	-10490
▁excluent	-10491
▁fadaises	-10492
▁fauteuil	-10493
▁fenetres	-10494
▁financer	-10495
▁formuler	-10496
▁fournier	-10497
▁fracture	-10498
▁frappent	-10499
▁friction	-10500
▁gamaleia	-10501
▁genethon	-10502
▁gonzalez	-10503
▁habitues	-10504
▁homogene	-10505
▁horaires	-10506
▁huveaune	-10507
▁icebergs	-10508
▁inaugure	-10509
▁incomple	-10510
▁indienne	-10511
▁inscrire	-10512
▁interets	-10513
▁intitule	-10514
▁invitant	-10515
▁irakiens	-10516
▁jeunesse	-10517
▁jonathan	-10518
▁jordanie	-10519
▁kirchner	-10520
▁kostyria	-10521
▁libanais	-10522
▁limitant	-10523
▁localise	-10524
▁maillart	-10525
▁maintenu	-10526
▁matthieu	-10527
▁methodes	-10528
▁mineraux	-10529
▁minimise	-10530
▁missiles	-10531
▁missions	-10532
▁moderees	-10533
▁modestes	-10534
▁montures	-10535
▁morceaux	-10536
▁morrison	-10537
▁mortelle	-10538
▁moyennes	-10539
▁mutuelle	-10540
▁myeloide	-10541
▁mysteres	-10542
▁naplouse	-10543
▁nathalie	-10544
▁negatifs	-10545
▁officier	-10546
▁origines	-10547
▁orphelin	-10548
▁paisible	-10549
▁pareille	-10550
▁patience	-10551
▁paysages	-10552
▁penetrer	-10553
▁piscines	-10554
▁pistillo	-10555
▁plaident	-10556
▁plancher	-10557
▁plateaux	-10558
▁poitrine	-10559
▁portions	-10560
▁poubelle	-10561
▁pourtour	-10562
▁precises	-10563
▁prelever	-10564
▁procurer	-10565
▁promesse	-10566
▁propager	-10567
▁proteine	-10568
▁prouvant	-10569
▁provient	-10570
▁quittent	-10571
▁ralentir	-10572
▁rallonge	-10573
▁rappeler	-10574
▁recouvre	-10575
▁recruter	-10576
▁refriger	-10577
▁regagner	-10578
▁regulier	-10579
▁relacher	-10580
▁relaches	-10581
▁relancer	-10582
▁relevant	-10583
▁remercie	-10584
▁remontee	-10585
▁renvoyes	-10586
▁repartis	-10587
▁reposant	-10588
▁reservee	-10589
▁respirer	-10590
▁retenues	-10591
▁richmond	-10592
▁robustus	-10593
▁sabotage	-10594
▁salaires	-10595
▁salvador	-10596
▁secousse	-10597
▁semestre	-10598
▁sensible	-10599
▁soberana	-10600
▁sociales	-10601
▁souffrir	-10602
▁souterra	-10603
▁stimuler	-10604
▁subvenir	-10605
▁surement	-10606
▁surnomme	-10607
▁survient	-10608
▁syndrome	-10609
▁talibans	-10610
▁tardives	-10611
▁theatres	-10612
▁totalise	-10613
▁touchent	-10614
▁tournent	-10615
▁triangle	-10616
▁troupeau	-10617
▁urgentes	-10618
▁valentin	-10619
▁victoria	-10620
▁voisines	-10621
lissements	-10622
ographique	-10623
tification	-10624
toplancton	-10625
▁abandonne	-10626
▁abattoirs	-10627
▁acceleree	-10628
▁accordent	-10629
▁accueille	-10630
▁actualite	-10631
▁aeroports	-10632
▁affairent	-10633
▁affichant	-10634
▁affluence	-10635
▁alentours	-10636
▁amplifier	-10637
▁anciennes	-10638
▁annoncent	-10639
▁annuelles	-10640
▁apportent	-10641
▁asiatique	-10642
▁attentats	-10643
▁attribuee	-10644
▁attribues	-10645
▁authentif	-10646
▁baltimore	-10647
▁banderole	-10648
▁benedicte	-10649
▁bouteille	-10650
▁bundestag	-10651
▁caritatif	-10652
▁carnivore	-10653
▁cauchemar	-10654
▁causalite	-10655
▁centrales	-10656
▁certifies	-10657
▁chauffage	-10658
▁cheminees	-10659
▁cherchent	-10660
▁cherchons	-10661
▁christine	-10662
▁chypriote	-10663
▁cinquante	-10664
▁classique	-10665
▁comparant	-10666
▁concerner	-10667
▁concretes	-10668
▁condamnee	-10669
▁condamnes	-10670
▁confirmes	-10671
▁confronte	-10672
▁conjointe	-10673
▁consensus	-10674
▁constante	-10675
▁constates	-10676
▁contracte	-10677
▁contraste	-10678
▁contreven	-10679
▁cormorans	-10680
▁coupables	-10681
▁courchamp	-10682
▁couteuses	-10683
▁deception	-10684
▁defendant	-10685
▁defendent	-10686
▁demandait	-10687
▁demandant	-10688
▁demission	-10689
▁dendievel	-10690
▁denoncait	-10691
▁denoncent	-10692
▁densement	-10693
▁deployees	-10694
▁descendre	-10695
▁discrimin	-10696
▁disparait	-10697
▁divisions	-10698
▁effrayant	-10699
▁embarquer	-10700
▁emportees	-10701
▁emportent	-10702
▁engendrer	-10703
▁entraines	-10704
▁entrepris	-10705
▁entretenu	-10706
▁enveloppe	-10707
▁equitable	-10708
▁ethiopien	-10709
▁exclusion	-10710
▁exprimait	-10711
▁faisaient	-10712
▁finistere	-10713
▁fonctions	-10714
▁fondament	-10715
▁fournaise	-10716
▁francisco	-10717
▁habitante	-10718
▁habitudes	-10719
▁hautement	-10720
▁hebergent	-10721
▁hecatombe	-10722
▁hivernale	-10723
▁homicides	-10724
▁hydrogene	-10725
▁immuniser	-10726
▁infirmier	-10727
▁ingenieur	-10728
▁instagram	-10729
▁justement	-10730
▁katmandou	-10731
▁lahouaiej	-10732
▁librement	-10733
▁longevite	-10734
▁materiaux	-10735
▁meilleurs	-10736
▁melbourne	-10737
▁melenchon	-10738
▁mesochori	-10739
▁mexicains	-10740
▁mouillage	-10741
▁musulmans	-10742
▁nombreuse	-10743
▁nuisances	-10744
▁nutrition	-10745
▁obtention	-10746
▁occupants	-10747
▁optimiste	-10748
▁orientale	-10749
▁ottermans	-10750
▁parasites	-10751
▁parcourir	-10752
▁partielle	-10753
▁partisans	-10754
▁passoires	-10755
▁pedagogie	-10756
▁pensaient	-10757
▁phtalates	-10758
▁physiques	-10759
▁plongeurs	-10760
▁portuaire	-10761
▁poubelles	-10762
▁poussiere	-10763
▁predateur	-10764
▁prejudice	-10765
▁preparent	-10766
▁presentee	-10767
▁pressions	-10768
▁profitant	-10769
▁profitent	-10770
▁promotion	-10771
▁prononces	-10772
▁provoquee	-10773
▁qualifiee	-10774
▁reactions	-10775
▁rebellion	-10776
▁redevance	-10777
▁refletent	-10778
▁refroidir	-10779
▁regardant	-10780
▁regionaux	-10781
▁remontant	-10782
▁remplacer	-10783
▁renforces	-10784
▁reparties	-10785
▁repondant	-10786
▁repondent	-10787
▁reportage	-10788
▁repoussee	-10789
▁repousser	-10790
▁respectee	-10791
▁salivaire	-10792
▁saucisses	-10793
▁scandales	-10794
▁selection	-10795
▁selective	-10796
▁singapour	-10797
▁solidaire	-10798
▁souffrait	-10799
▁soupconne	-10800
▁souplesse	-10801
▁specimens	-10802
▁sportives	-10803
▁suggerent	-10804
▁suivantes	-10805
▁supervise	-10806
▁suscitent	-10807
▁terribles	-10808
▁transfert	-10809
▁transmise	-10810
▁traverser	-10811
▁vaccinaux	-10812
▁valentina	-10813
▁vignerons	-10814
▁violation	-10815
▁virologue	-10816
▁accessible	-10817
▁accueillis	-10818
▁acoustique	-10819
▁activement	-10820
▁allemandes	-10821
▁ambitieuse	-10822
▁appliquees	-10823
▁artificiel	-10824
▁attraction	-10825
▁augmentent	-10826
▁automobile	-10827
▁autorisera	-10828
▁avortement	-10829
▁benefiques	-10830
▁biologique	-10831
▁bresiliens	-10832
▁ceremonies	-10833
▁classement	-10834
▁collectifs	-10835
▁combustion	-10836
▁compliquee	-10837
▁comportant	-10838
▁composants	-10839
▁concernees	-10840
▁conduisant	-10841
▁confirmant	-10842
▁confondues	-10843
▁congeneres	-10844
▁consistant	-10845
▁constatons	-10846
▁construire	-10847
▁construite	-10848
▁contamines	-10849
▁contraints	-10850
▁copenhague	-10851
▁delegation	-10852
▁democrates	-10853
▁dependance	-10854
▁desaccords	-10855
▁determinee	-10856
▁directeurs	-10857
▁directives	-10858
▁disparites	-10859
▁distinguer	-10860
▁distribuer	-10861
▁educateurs	-10862
▁emballages	-10863
▁encourager	-10864
▁endommager	-10865
▁engouement	-10866
▁enqueteurs	-10867
▁epuisement	-10868
▁equatorien	-10869
▁exploitant	-10870
▁expression	-10871
▁fermetures	-10872
▁generalise	-10873
▁glaciaires	-10874
▁habitation	-10875
▁identifies	-10876
▁immunisees	-10877
▁indonesien	-10878
▁inferieure	-10879
▁infiltrent	-10880
▁inspection	-10881
▁installees	-10882
▁intensifie	-10883
▁interminis	-10884
▁intervenir	-10885
▁islandaise	-10886
▁longuement	-10887
▁maternelle	-10888
▁megatonnes	-10889
▁meurtriers	-10890
▁microalgue	-10891
▁ministeres	-10892
▁moderniser	-10893
▁mouvements	-10894
▁mozambique	-10895
▁neurologue	-10896
▁occidental	-10897
▁olympiques	-10898
▁originaire	-10899
▁partenaire	-10900
▁pedopsychi	-10901
▁perfluores	-10902
▁plaquettes	-10903
▁portsmouth	-10904
▁positivite	-10905
▁potentiels	-10906
▁poussieres	-10907
▁praticiens	-10908
▁precisions	-10909
▁presentait	-10910
▁presidents	-10911
▁proliferer	-10912
▁promettant	-10913
▁proprietes	-10914
▁protegeant	-10915
▁provoquent	-10916
▁psychiques	-10917
▁pulmonaire	-10918
▁qualifiant	-10919
▁quantifier	-10920
▁rapportant	-10921
▁rapporteur	-10922
▁rapprocher	-10923
▁rassembles	-10924
▁rechercher	-10925
▁reconnaiss	-10926
▁recouverts	-10927
▁redoutable	-10928
▁relativise	-10929
▁rencontrer	-10930
▁rencontres	-10931
▁renforcees	-10932
▁reparation	-10933
▁repondants	-10934
▁repoussees	-10935
▁reservoirs	-10936
▁resilience	-10937
▁respectees	-10938
▁rouvriront	-10939
▁sarrebruck	-10940
▁satisfaire	-10941
▁satisfaite	-10942
▁sceptiques	-10943
▁sinistrees	-10944
▁sismologue	-10945
▁smartphone	-10946
▁souffrance	-10947
▁souhaitons	-10948
▁subitement	-10949
▁subvention	-10950
▁superieurs	-10951
▁superviser	-10952
▁systemique	-10953
▁temoignage	-10954
▁tentatives	-10955
▁thermiques	-10956
▁transferer	-10957
▁veritables	-10958
▁villageois	-10959
▁volontaire	-10960
▁zoologique	-10961
▁accompagner	-10962
▁administres	-10963
▁adolescents	-10964
▁allergiques	-10965
▁antigenique	-10966
▁approvision	-10967
▁attendaient	-10968
▁bicyclettes	-10969
▁biologiques	-10970
▁biologistes	-10971
▁chelonoidis	-10972
▁chikungunya	-10973
▁chiropteres	-10974
▁comparaison	-10975
▁concitoyens	-10976
▁concurrents	-10977
▁confortable	-10978
▁constituant	-10979
▁conventions	-10980
▁coordonnees	-10981
▁costagliola	-10982
▁craignaient	-10983
▁criminalite	-10984
▁depollution	-10985
▁depressions	-10986
▁detachement	-10987
▁developpent	-10988
▁domestiques	-10989
▁echantillon	-10990
▁elimination	-10991
▁enregistrer	-10992
▁escroquerie	-10993
▁eventuelles	-10994
▁financieres	-10995
▁flamanville	-10996
▁fournisseur	-10997
▁fraichement	-10998
▁frontaliere	-10999
▁funerailles	-11000
▁geologiques	-11001
▁gigantesque	-11002
▁gouverneurs	-11003
▁hebergement	-11004
▁immunitaire	-11005
▁incertitude	-11006
▁indications	-11007
▁inferieures	-11008
▁infractions	-11009
▁instruments	-11010
▁interprofes	-11011
▁interrompre	-11012
▁interrompue	-11013
▁introduites	-11014
▁juridiction	-11015
▁limitations	-11016
▁limitrophes	-11017
▁mehaignerie	-11018
▁microalgues	-11019
▁negociation	-11020
▁oceanopolis	-11021
▁partenariat	-11022
▁participant	-11023
▁parviennent	-11024
▁poursuivent	-11025
▁poursuivies	-11026
▁precisement	-11027
▁prevoyaient	-11028
▁prioritaire	-11029
▁privilegier	-11030
▁producteurs	-11031
▁rassemblees	-11032
▁rassemblent	-11033
▁rayonnement	-11034
▁respiration	-11035
▁secheresses	-11036
▁solidarites	-11037
▁souffraient	-11038
▁specialites	-11039
▁strategique	-11040
▁susceptible	-11041
▁trafiquants	-11042
▁transformer	-11043
▁transformes	-11044
▁traumatique	-11045
▁traumatisme	-11046
▁tremblement	-11047
▁accelerateur	-11048
▁alternatives	-11049
▁bresiliennes	-11050
▁chathamensis	-11051
▁compensation	-11052
▁confirmation	-11053
▁conformement	-11054
▁conservateur	-11055
▁considerable	-11056
▁consommateur	-11057
▁continentale	-11058
▁contraignant	-11059
▁correspondre	-11060
▁declarations	-11061
▁degradations	-11062
▁dispositions	-11063
▁exportations	-11064
▁farouchement	-11065
▁fonctionnent	-11066
▁formellement	-11067
▁fournisseurs	-11068
▁gigantesques	-11069
▁hypertension	-11070
▁inacceptable	-11071
▁informatique	-11072
▁inhabituelle	-11073
▁innombrables	-11074
▁institutions	-11075
▁insuffisante	-11076
▁norvegiennes	-11077
▁paramedicaux	-11078
▁perturbateur	-11079
▁precedemment	-11080
▁preoccupants	-11081
▁reanimations	-11082
▁reconversion	-11083
▁recuperation	-11084
▁retardateurs	-11085
▁sensiblement	-11086
▁signalements	-11087
▁soudainement	-11088
▁specialisees	-11089
▁tarification	-11090
▁traditionnel	-11091
▁transportant	-11092
▁verification	-11093
▁acceptabilite	-11094
▁affrontements	-11095
▁commemoration	-11096
▁concertations	-11097
▁deconfinement	-11098
▁demangeaisons	-11099
▁desesperement	-11100
▁devastatrices	-11101
▁drastiquement	-11102
▁elargissement	-11103
▁electroniques	-11104
▁frequentation	-11105
▁genetiquement	-11106
▁gestionnaires	-11107
▁guadeloupeens	-11108
▁hospitalisees	-11109
▁juridiquement	-11110
▁mecaniquement	-11111
▁medicamenteux	-11112
▁mediterraneen	-11113
▁municipalites	-11114
▁naturellement	-11115
▁photosynthese	-11116
▁phytoplancton	-11117
▁prochainement	-11118
▁psychiatrique	-11119
▁reintroduites	-11120
▁representante	-11121
▁universitaire	-11122
▁venezuelienne	-11123
▁veritablement	-11124
▁vraisemblable	-11125
▁zacharopoulou	-11126
▁blanchissement	-11127
▁bureaucratique	-11128
▁economiquement	-11129
▁fonctionnaires	-11130
▁gouvernemental	-11131
▁indispensables	-11132
▁intellectuelle	-11133
▁photographique	-11134
▁pollinisateurs	-11135
▁preoccupations	-11136
▁provisoirement	-11137
▁psychologiques	-11138
▁ralentissement	-11139
▁reintroduction	-11140
▁symptomatiques	-11141
▁administrations	-11142
▁catastrophiques	-11143
▁epidemiologique	-11144
▁intensification	-11145
▁interpellations	-11146
▁prioritairement	-11147
▁rebondissements	-11148
▁refroidissement	-11149
dd	-11150
dt	-11151
ey	-11152
hu	-11153
iz	-11154
jd	-11155
je	-11156
jn	-11157
ln	-11158
no	-11159
oo	-11160
sh	-11161
tg	-11162
tp	-11163
tv	-11164
vs	-11165
vy	-11166
aba	-11167
abe	-11168
abi	-11169
aci	-11170
aer	-11171
agd	-11172
aix	-11173
alu	-11174
apa	-11175
arn	-11176
arz	-11177
aye	-11178
ban	-11179
bar	-11180
bec	-11181
bet	-11182
blo	-11183
chu	-11184
cke	-11185
cou	-11186
cro	-11187
cue	-11188
cus	-11189
dec	-11190
den	-11191
dia	-11192
dib	-11193
dif	-11194
dou	-11195
dru	-11196
dus	-11197
eit	-11198
ele	-11199
rd	-11200
acs	-11201
att	-11202
elo	-11203
ena	-11204
enb	-11205
eny	-11206
esb	-11207
fon	-11208
fou	-11209
god	-11210
gon	-11211
hao	-11212
het	-11213
iec	-11214
inn	-11215
ish	-11216
jnb	-11217
kea	-11218
khi	-11219
lim	-11220
lla	-11221
mah	-11222
mos	-11223
mus	-11224
nci	-11225
net	-11226
nhn	-11227
nsa	-11228
nse	-11229
nut	-11230
oac	-11231
oag	-11232
oli	-11233
oln	-11234
opo	-11235
oqu	-11236
ora	-11237
org	-11238
osa	-11239
oth	-11240
oua	-11241
ouz	-11242
pee	-11243
pex	-11244
rac	-11245
red	-11246
rol	-11247
sec	-11248
seu	-11249
ste	-11250
tik	-11251
tos	-11252
ual	-11253
uba	-11254
udu	-11255
und	-11256
ush	-11257
vin	-11258
vul	-11259
xig	-11260
yro	-11261
yst	-11262
zic	-11263
zta	-11264
▁ak	-11265
▁bh	-11266
▁ee	-11267
▁eo	-11268
▁gc	-11269
▁gi	-11270
▁ho	-11271
▁iq	-11272
▁pt	-11273
▁ry	-11274
▁sd	-11275
▁uk	-11276
abla	-11277
achi	-11278
adri	-11279
alac	-11280
aled	-11281
alja	-11282
anal	-11283
anda	-11284
ands	-11285
ansu	-11286
appe	-11287
ario	-11288
aten	-11289
atie	-11290
atta	-11291
aule	-11292
back	-11293
bots	-11294
bout	-11295
bvre	-11296
cear	-11297
chin	-11298
chor	-11299
aam	-11300
vot	-11301
acea	-11302
acee	-11303
cler	-11304
come	-11305
cots	-11306
cque	-11307
deur	-11308
diot	-11309
dium	-11310
duit	-11311
elan	-11312
eree	-11313
etee	-11314
euve	-11315
ffen	-11316
ffic	-11317
ffre	-11318
ghts	-11319
hari	-11320
hasa	-11321
heer	-11322
heit	-11323
hgal	-11324
hibe	-11325
hire	-11326
hite	-11327
iale	-11328
ices	-11329
iele	-11330
iera	-11331
ilde	-11332
illa	-11333
imes	-11334
inez	-11335
inin	-11336
isne	-11337
itas	-11338
itte	-11339
kova	-11340
lain	-11341
lers	-11342
leux	-11343
lime	-11344
lits	-11345
lore	-11346
luts	-11347
mano	-11348
mbas	-11349
mbes	-11350
mbou	-11351
mien	-11352
mite	-11353
moni	-11354
mpue	-11355
ncil	-11356
ners	-11357
oloc	-11358
omme	-11359
onso	-11360
onta	-11361
opro	-11362
orat	-11363
ormi	-11364
orqu	-11365
orth	-11366
osta	-11367
oton	-11368
ouli	-11369
outs	-11370
phon	-11371
pins	-11372
plus	-11373
pour	-11374
pper	-11375
ppes	-11376
quen	-11377
rand	-11378
raux	-11379
reau	-11380
reci	-11381
reek	-11382
rete	-11383
reto	-11384
reur	-11385
riee	-11386
ries	-11387
rika	-11388
role	-11389
rues	-11390
rysu	-11391
sees	-11392
sier	-11393
sole	-11394
sona	-11395
taux	-11396
teri	-11397
ties	-11398
tral	-11399
aph	-11400
ibo	-11401
aphy	-11402
eibo	-11403
gend	-11404
hong	-11405
onga	-11406
tric	-11407
uels	-11408
upus	-11409
urse	-11410
utte	-11411
vere	-11412
vert	-11413
xtes	-11414
ydes	-11415
zman	-11416
▁afg	-11417
▁afm	-11418
▁aro	-11419
▁bav	-11420
▁bir	-11421
▁bur	-11422
▁bux	-11423
▁cdu	-11424
▁cle	-11425
▁das	-11426
▁ded	-11427
▁dog	-11428
▁elo	-11429
▁esn	-11430
▁exo	-11431
▁fid	-11432
▁fmp	-11433
▁fne	-11434
▁fue	-11435
▁fur	-11436
▁gau	-11437
▁gps	-11438
▁hav	-11439
▁hel	-11440
▁hrd	-11441
▁hub	-11442
▁ilo	-11443
▁imb	-11444
▁jul	-11445
▁kam	-11446
▁kor	-11447
▁lam	-11448
▁las	-11449
▁lav	-11450
▁lek	-11451
▁mad	-11452
▁mgh	-11453
▁mob	-11454
▁mos	-11455
▁naq	-11456
▁nau	-11457
▁nej	-11458
▁nez	-11459
▁nog	-11460
▁out	-11461
▁pap	-11462
▁pip	-11463
▁ppe	-11464
▁pun	-11465
▁rab	-11466
▁rag	-11467
▁raj	-11468
▁rdc	-11469
▁rgp	-11470
▁rui	-11471
▁she	-11472
▁soy	-11473
▁sul	-11474
▁tan	-11475
▁teh	-11476
▁tim	-11477
▁tun	-11478
▁tyr	-11479
▁vit	-11480
▁voc	-11481
▁vom	-11482
▁vue	-11483
▁zad	-11484
aille	-11485
aisie	-11486
alant	-11487
alapa	-11488
alves	-11489
amika	-11490
arait	-11491
ardie	-11492
argon	-11493
ateng	-11494
azine	-11495
beria	-11496
bonne	-11497
brale	-11498
carce	-11499
jah	-11500
rup	-11501
hren	-11502
kong	-11503
riev	-11504
uple	-11505
vish	-11506
xper	-11507
▁abb	-11508
▁blu	-11509
▁day	-11510
▁pnu	-11511
bable	-11512
chich	-11513
cieux	-11514
claux	-11515
dares	-11516
dence	-11517
diens	-11518
eckne	-11519
eland	-11520
engor	-11521
ensee	-11522
enson	-11523
entin	-11524
enues	-11525
ernak	-11526
eront	-11527
estho	-11528
ettes	-11529
ffure	-11530
gares	-11531
geais	-11532
geons	-11533
gnent	-11534
grain	-11535
guant	-11536
guent	-11537
hesie	-11538
iares	-11539
idose	-11540
iente	-11541
ierra	-11542
ieuse	-11543
ignee	-11544
ilait	-11545
ilent	-11546
illol	-11547
inois	-11548
inson	-11549
inthe	-11550
iseau	-11551
lates	-11552
leuse	-11553
lever	-11554
loire	-11555
loque	-11556
lores	-11557
mante	-11558
mette	-11559
mific	-11560
mines	-11561
mivir	-11562
motte	-11563
mslif	-11564
niste	-11565
nutri	-11566
obles	-11567
oisme	-11568
olent	-11569
onale	-11570
oncet	-11571
onsci	-11572
ophie	-11573
oques	-11574
orque	-11575
osera	-11576
osoci	-11577
oters	-11578
ouris	-11579
ouses	-11580
outre	-11581
ouvet	-11582
perse	-11583
quage	-11584
queur	-11585
quois	-11586
rable	-11587
ranle	-11588
rante	-11589
reign	-11590
riees	-11591
rimer	-11592
ritus	-11593
seros	-11594
soula	-11595
tenus	-11596
tieme	-11597
tiens	-11598
tifie	-11599
ikh	-11600
xei	-11601
adar	-11602
anee	-11603
eluc	-11604
ight	-11605
oitu	-11606
ovig	-11607
peup	-11608
roup	-11609
stan	-11610
▁rio	-11611
▁rug	-11612
avori	-11613
cheng	-11614
credu	-11615
dical	-11616
estor	-11617
icide	-11618
icole	-11619
madec	-11620
oplie	-11621
oyant	-11622
tille	-11623
tines	-11624
tival	-11625
trand	-11626
tront	-11627
uiser	-11628
urons	-11629
uster	-11630
utent	-11631
uvien	-11632
veill	-11633
veurs	-11634
viers	-11635
vions	-11636
viste	-11637
▁abus	-11638
▁adam	-11639
▁addo	-11640
▁aden	-11641
▁adep	-11642
▁aise	-11643
▁ajus	-11644
▁arro	-11645
▁bhar	-11646
▁bile	-11647
▁bite	-11648
▁bois	-11649
▁bond	-11650
▁brie	-11651
▁bris	-11652
▁brou	-11653
▁burs	-11654
▁cage	-11655
▁carc	-11656
▁chen	-11657
▁chre	-11658
▁cing	-11659
▁clip	-11660
▁coma	-11661
▁cone	-11662
▁cord	-11663
▁core	-11664
▁corp	-11665
▁cure	-11666
▁defe	-11667
▁dion	-11668
▁dipl	-11669
▁djam	-11670
▁dois	-11671
▁dona	-11672
▁durs	-11673
▁ecor	-11674
▁elas	-11675
▁endu	-11676
▁esqu	-11677
▁etau	-11678
▁eter	-11679
▁evid	-11680
▁exce	-11681
▁fact	-11682
▁figu	-11683
▁fins	-11684
▁flic	-11685
▁foie	-11686
▁fuir	-11687
▁gain	-11688
▁gccr	-11689
▁gild	-11690
▁glor	-11691
▁gons	-11692
▁guai	-11693
▁hame	-11694
▁hann	-11695
▁hill	-11696
▁ikea	-11697
▁imma	-11698
▁inam	-11699
adas	-11700
avac	-11701
clue	-11702
jete	-11703
ovis	-11704
riez	-11705
▁imo	-11706
asite	-11707
cluse	-11708
gedie	-11709
ilber	-11710
▁bios	-11711
▁brin	-11712
▁crea	-11713
▁ephe	-11714
▁geos	-11715
▁gret	-11716
▁insi	-11717
▁jete	-11718
▁jura	-11719
▁king	-11720
▁kins	-11721
▁kone	-11722
▁kons	-11723
▁leta	-11724
▁lomb	-11725
▁luis	-11726
▁lynx	-11727
▁mans	-11728
▁mara	-11729
▁mele	-11730
▁meta	-11731
▁mire	-11732
▁mirs	-11733
▁mnhn	-11734
▁mobi	-11735
▁moll	-11736
▁mors	-11737
▁mosc	-11738
▁muse	-11739
▁nage	-11740
▁nata	-11741
▁natu	-11742
▁neer	-11743
▁nier	-11744
▁noeu	-11745
▁oeuv	-11746
▁ohas	-11747
▁pain	-11748
▁pamp	-11749
▁pana	-11750
▁pans	-11751
▁pard	-11752
▁parf	-11753
▁pasc	-11754
▁past	-11755
▁phil	-11756
▁piet	-11757
▁pign	-11758
▁pili	-11759
▁pool	-11760
▁prag	-11761
▁pros	-11762
▁pseu	-11763
▁pubs	-11764
▁pull	-11765
▁quai	-11766
▁rais	-11767
▁raph	-11768
▁reis	-11769
▁reme	-11770
▁rgpd	-11771
▁rnsa	-11772
▁roch	-11773
▁rude	-11774
▁same	-11775
▁sana	-11776
▁sard	-11777
▁scan	-11778
▁sdis	-11779
▁seta	-11780
▁shou	-11781
▁soif	-11782
▁soul	-11783
▁stef	-11784
▁ster	-11785
▁tarn	-11786
▁tell	-11787
▁texe	-11788
▁titu	-11789
▁tond	-11790
▁tort	-11791
▁toux	-11792
▁tues	-11793
▁turb	-11794
▁vant	-11795
▁vive	-11796
▁vues	-11797
▁yanz	-11798
▁zoon	-11799
ohn	-11800
ield	-11801
roux	-11802
tome	-11803
ucle	-11804
▁pjd	-11805
▁yes	-11806
▁yol	-11807
▁yor	-11808
▁yos	-11809
iciel	-11810
lechi	-11811
ouree	-11812
rasad	-11813
▁crou	-11814
▁eloi	-11815
▁elue	-11816
▁lind	-11817
▁omni	-11818
▁prou	-11819
▁yong	-11820
achant	-11821
agasti	-11822
ageuse	-11823
aissez	-11824
ametre	-11825
anggal	-11826
approp	-11827
artoum	-11828
assion	-11829
caient	-11830
cedent	-11831
celone	-11832
chette	-11833
cilier	-11834
cution	-11835
dieges	-11836
dition	-11837
droyes	-11838
druple	-11839
elcome	-11840
entiel	-11841
erique	-11842
ernale	-11843
gender	-11844
gentes	-11845
hmallo	-11846
iaques	-11847
icaine	-11848
ientes	-11849
ignent	-11850
ildlif	-11851
illard	-11852
illeur	-11853
indres	-11854
ionaux	-11855
istoni	-11856
itives	-11857
laires	-11858
licate	-11859
lifies	-11860
mander	-11861
medang	-11862
menade	-11863
mencer	-11864
mslift	-11865
nelles	-11866
oletes	-11867
ongent	-11868
onnent	-11869
onnier	-11870
opante	-11871
ormise	-11872
orqual	-11873
ostase	-11874
ouffre	-11875
ouille	-11876
ourses	-11877
ovible	-11878
porels	-11879
quemin	-11880
querir	-11881
quille	-11882
quiqui	-11883
rances	-11884
relles	-11885
risque	-11886
rouler	-11887
siouli	-11888
tatifs	-11889
terait	-11890
teries	-11891
tieuse	-11892
tifier	-11893
tilite	-11894
tuaire	-11895
uilles	-11896
ulents	-11897
urique	-11898
usques	-11899
ums	-11900
nats	-11901
utic	-11902
▁sii	-11903
▁tob	-11904
berto	-11905
biens	-11906
giens	-11907
matis	-11908
menau	-11909
omage	-11910
reats	-11911
ticut	-11912
utics	-11913
▁angl	-11914
▁croy	-11915
▁doux	-11916
▁gymn	-11917
▁hels	-11918
▁mhra	-11919
▁miro	-11920
▁morc	-11921
alisee	-11922
issage	-11923
nutsen	-11924
partie	-11925
ttling	-11926
ulence	-11927
usters	-11928
vaient	-11929
vienne	-11930
vistes	-11931
xiglas	-11932
yroide	-11933
▁abeba	-11934
▁about	-11935
▁accus	-11936
▁achar	-11937
▁actes	-11938
▁admet	-11939
▁adour	-11940
▁aerer	-11941
▁agent	-11942
▁agron	-11943
▁ailes	-11944
▁aimer	-11945
▁aisne	-11946
▁aleas	-11947
▁algue	-11948
▁allie	-11949
▁amies	-11950
▁ances	-11951
▁anest	-11952
▁anorm	-11953
▁arles	-11954
▁armer	-11955
▁arres	-11956
▁asper	-11957
▁astre	-11958
▁athle	-11959
▁atout	-11960
▁aubry	-11961
▁bancs	-11962
▁batho	-11963
▁beach	-11964
▁bearn	-11965
▁benin	-11966
▁biens	-11967
▁blond	-11968
▁bloss	-11969
▁bobov	-11970
e	-11971
▁	-11972
i	-11973
s	-11974
n	-11975
a	-11976
r	-11977
t	-11978
o	-11979
u	-11980
c	-11981
l	-11982
p	-11983
m	-11984
d	-11985
v	-11986
f	-11987
g	-11988
b	-11989
h	-11990
q	-11991
x	-11992
j	-11993
y	-11994
z	-11995
k	-11996
